{
  "version": "1.0",
  "truncation": null,
  "padding": null,
  "added_tokens": [
    {
      "id": 0,
      "content": "[PAD]",
      "single_word": false,
      "lstrip": false,
      "rstrip": false,
      "normalized": false,
      "special": true
    },
    {
      "id": 1,
      "content": "[UNK]",
      "single_word": false,
      "lstrip": false,
      "rstrip": false,
      "normalized": false,
      "special": true
    },
    {
      "id": 2,
      "content": "[CLS]",
      "single_word": false,
      "lstrip": false,
      "rstrip": false,
      "normalized": false,
      "special": true
    },
    {
      "id": 3,
      "content": "[SEP]",
      "single_word": false,
      "lstrip": false,
      "rstrip": false,
      "normalized": false,
      "special": true
    },
    {
      "id": 4,
      "content": "[MASK]",
      "single_word": false,
      "lstrip": false,
      "rstrip": false,
      "normalized": false,
      "special": true
    }
  ],
  "normalizer": null,
  "pre_tokenizer": {
    "type": "ByteLevel",
    "add_prefix_space": true,
    "trim_offsets": true,
    "use_regex": true
  },
  "post_processor": null,
  "decoder": {
    "type": "ByteLevel",
    "add_prefix_space": true,
    "trim_offsets": true,
    "use_regex": true
  },
  "model": {
    "type": "BPE",
    "dropout": null,
    "unk_token": null,
    "continuing_subword_prefix": null,
    "end_of_word_suffix": null,
    "fuse_unk": false,
    "byte_fallback": false,
    "vocab": {
      "[PAD]": 0,
      "[UNK]": 1,
      "[CLS]": 2,
      "[SEP]": 3,
      "[MASK]": 4,
      "!": 5,
      "\"": 6,
      "#": 7,
      "$": 8,
      "%": 9,
      "&": 10,
      "'": 11,
      "(": 12,
      ")": 13,
      "+": 14,
      ",": 15,
      "-": 16,
      ".": 17,
      "/": 18,
      "0": 19,
      "1": 20,
      "2": 21,
      "3": 22,
      "4": 23,
      "5": 24,
      "6": 25,
      "7": 26,
      "8": 27,
      "9": 28,
      ":": 29,
      ";": 30,
      "?": 31,
      "A": 32,
      "B": 33,
      "C": 34,
      "D": 35,
      "E": 36,
      "F": 37,
      "G": 38,
      "H": 39,
      "I": 40,
      "J": 41,
      "K": 42,
      "L": 43,
      "M": 44,
      "N": 45,
      "O": 46,
      "P": 47,
      "Q": 48,
      "R": 49,
      "S": 50,
      "T": 51,
      "U": 52,
      "V": 53,
      "W": 54,
      "X": 55,
      "Y": 56,
      "Z": 57,
      "[": 58,
      "]": 59,
      "_": 60,
      "a": 61,
      "b": 62,
      "c": 63,
      "d": 64,
      "e": 65,
      "f": 66,
      "g": 67,
      "h": 68,
      "i": 69,
      "j": 70,
      "k": 71,
      "l": 72,
      "m": 73,
      "n": 74,
      "o": 75,
      "p": 76,
      "q": 77,
      "r": 78,
      "s": 79,
      "t": 80,
      "u": 81,
      "v": 82,
      "w": 83,
      "x": 84,
      "y": 85,
      "z": 86,
      "}": 87,
      "¡": 88,
      "¤": 89,
      "§": 90,
      "¨": 91,
      "©": 92,
      "«": 93,
      "°": 94,
      "¶": 95,
      "¹": 96,
      "»": 97,
      "¼": 98,
      "¾": 99,
      "Â": 100,
      "Ã": 101,
      "Å": 102,
      "É": 103,
      "Ê": 104,
      "Ì": 105,
      "á": 106,
      "â": 107,
      "Ċ": 108,
      "Ġ": 109,
      "Ģ": 110,
      "ģ": 111,
      "ĥ": 112,
      "ī": 113,
      "Ĭ": 114,
      "į": 115,
      "ĵ": 116,
      "Ķ": 117,
      "Ļ": 118,
      "ļ": 119,
      "Ľ": 120,
      "ł": 121,
      "Ġt": 122,
      "Ġa": 123,
      "he": 124,
      "in": 125,
      "er": 126,
      "on": 127,
      "re": 128,
      "Ġthe": 129,
      "at": 130,
      "en": 131,
      "is": 132,
      "Ġs": 133,
      "an": 134,
      "or": 135,
      "Ġf": 136,
      "ed": 137,
      "Ġw": 138,
      "it": 139,
      "Ġan": 140,
      "es": 141,
      "Ġo": 142,
      "ar": 143,
      "Ġc": 144,
      "Ġin": 145,
      "Ġb": 146,
      "ing": 147,
      "Ġp": 148,
      "Ġand": 149,
      "le": 150,
      "Ġof": 151,
      "al": 152,
      "ic": 153,
      "Ġh": 154,
      "Ġd": 155,
      "Ġto": 156,
      "il": 157,
      "ion": 158,
      "Ġm": 159,
      "om": 160,
      "as": 161,
      "ĠB": 162,
      "ĠT": 163,
      "ro": 164,
      "im": 165,
      "ct": 166,
      "ent": 167,
      "Ġre": 168,
      "el": 169,
      "ou": 170,
      "Ġas": 171,
      "ol": 172,
      "'s": 173,
      "ĠA": 174,
      "ce": 175,
      "ĠS": 176,
      "ĠC": 177,
      "Ġth": 178,
      "ig": 179,
      "am": 180,
      "st": 181,
      "Ġbe": 182,
      "ĠD": 183,
      "ot": 184,
      "ay": 185,
      "Ġl": 186,
      "Ġe": 187,
      "ilm": 188,
      "Ġn": 189,
      "ur": 190,
      "Ġhis": 191,
      "ĠP": 192,
      "us": 193,
      "Ġfor": 194,
      "ĠThe": 195,
      "Ġfilm": 196,
      "Ġ-": 197,
      "Ġhe": 198,
      "ge": 199,
      "iv": 200,
      "ly": 201,
      "ĠG": 202,
      "id": 203,
      "un": 204,
      "Ġis": 205,
      "Ġon": 206,
      "ter": 207,
      "ith": 208,
      "ch": 209,
      "Ġ\"": 210,
      "ad": 211,
      "man": 212,
      "Ġwh": 213,
      "pp": 214,
      "ut": 215,
      "ĠR": 216,
      "ĠM": 217,
      "Ġwith": 218,
      "ĠN": 219,
      "ir": 220,
      "her": 221,
      "ers": 222,
      "ul": 223,
      "ĠI": 224,
      "Ġst": 225,
      "ĠH": 226,
      "ep": 227,
      "ĠW": 228,
      "Ġwas": 229,
      "ist": 230,
      "ow": 231,
      "ĠJ": 232,
      "et": 233,
      "ect": 234,
      "est": 235,
      "em": 236,
      "ĠF": 237,
      "ĠO": 238,
      "ation": 239,
      "Ġthat": 240,
      "igh": 241,
      "ity": 242,
      "Ġby": 243,
      "ru": 244,
      "ĠBat": 245,
      "op": 246,
      "os": 247,
      "ia": 248,
      "ra": 249,
      "Ġcon": 250,
      "ver": 251,
      "Ġ1": 252,
      "Ġg": 253,
      "ill": 254,
      "ĠBatman": 255,
      "Ġal": 256,
      "av": 257,
      "ight": 258,
      "20": 259,
      "ak": 260,
      "ri": 261,
      "ord": 262,
      "ud": 263,
      "olan": 264,
      "rom": 265,
      "ĠK": 266,
      "res": 267,
      "ĠL": 268,
      "if": 269,
      "Ġcom": 270,
      "Ġde": 271,
      "ain": 272,
      "Ġsu": 273,
      "age": 274,
      "pt": 275,
      "ĠNolan": 276,
      "Ġ(": 277,
      "ld": 278,
      "Ġ20": 279,
      "Ġse": 280,
      "Ġpro": 281,
      "ci": 282,
      "Ġit": 283,
      "ac": 284,
      "ess": 285,
      "ort": 286,
      "Ġwho": 287,
      "ob": 288,
      "ore": 289,
      "ne": 290,
      "ĠE": 291,
      "ate": 292,
      "Ġch": 293,
      "Ġat": 294,
      "Ġfrom": 295,
      "ĠIn": 296,
      "ear": 297,
      "leep": 298,
      "ical": 299,
      "ppen": 300,
      "ard": 301,
      "ark": 302,
      "Ġhim": 303,
      "imer": 304,
      "heimer": 305,
      "ppenheimer": 306,
      "Ġle": 307,
      "ated": 308,
      "od": 309,
      "nia": 310,
      "som": 311,
      "Ġv": 312,
      "red": 313,
      "Ġex": 314,
      "Ġ19": 315,
      "ary": 316,
      "ant": 317,
      "ection": 318,
      "oun": 319,
      "og": 320,
      "um": 321,
      "oth": 322,
      "Ġsleep": 323,
      "art": 324,
      "somnia": 325,
      "ies": 326,
      "ĠOppenheimer": 327,
      "Ġinc": 328,
      "hy": 329,
      "Ġor": 330,
      "ice": 331,
      "ĠPage": 332,
      "ive": 333,
      "itle": 334,
      "ich": 335,
      "ab": 336,
      "th": 337,
      "Ġun": 338,
      "ĠTitle": 339,
      "ĠSection": 340,
      "ok": 341,
      "ov": 342,
      "ran": 343,
      "Ġdis": 344,
      "ell": 345,
      "night": 346,
      "ruce": 347,
      "ure": 348,
      "rit": 349,
      "ĠBruce": 350,
      "ĠAn": 351,
      "ag": 352,
      "ts": 353,
      "Ġwor": 354,
      "all": 355,
      "ie": 356,
      "ire": 357,
      "Ġbut": 358,
      "Ġk": 359,
      "pl": 360,
      "Ġsh": 361,
      "ous": 362,
      "ayne": 363,
      "ment": 364,
      "ĠU": 365,
      "Ġhas": 366,
      "ĠCh": 367,
      "ĠDark": 368,
      "ĠKnight": 369,
      "act": 370,
      "so": 371,
      "uc": 372,
      "end": 373,
      "Ġinsomnia": 374,
      "Ġpl": 375,
      "ĠWayne": 376,
      "qu": 377,
      "ave": 378,
      "ence": 379,
      "oc": 380,
      "ther": 381,
      "ame": 382,
      "Ġint": 383,
      "\".": 384,
      "ap": 385,
      "ris": 386,
      "Ġus": 387,
      "ory": 388,
      "Ġy": 389,
      "ert": 390,
      "fter": 391,
      "ost": 392,
      "cc": 393,
      "lud": 394,
      "up": 395,
      "ased": 396,
      "our": 397,
      "der": 398,
      "Ġab": 399,
      "Ġapp": 400,
      "ime": 401,
      "ĠGoth": 402,
      "gh": 403,
      "ath": 404,
      "Ġres": 405,
      "ian": 406,
      "ast": 407,
      "ĠHe": 408,
      "ĠGotham": 409,
      "âĢ": 410,
      "ond": 411,
      "Ġbec": 412,
      "Ġne": 413,
      "Ġwhich": 414,
      "Ġcomp": 415,
      "Ġ201": 416,
      "ff": 417,
      "ial": 418,
      "ind": 419,
      "out": 420,
      "ide": 421,
      "ue": 422,
      "ve": 423,
      "Ġim": 424,
      "ine": 425,
      "Ġfilms": 426,
      "ult": 427,
      "obb": 428,
      "Ġinclud": 429,
      "ong": 430,
      "ren": 431,
      "Ġsc": 432,
      "unk": 433,
      "ations": 434,
      "Ġcont": 435,
      "wo": 436,
      "ane": 437,
      "Ġhave": 438,
      "Ġone": 439,
      "aus": 440,
      "Ġro": 441,
      "Ġfe": 442,
      "ption": 443,
      "ile": 444,
      "mer": 445,
      "Ġtra": 446,
      "ater": 447,
      "eg": 448,
      "ier": 449,
      "se": 450,
      "Ġr": 451,
      "Ġte": 452,
      "and": 453,
      "Ġpol": 454,
      "Ġhad": 455,
      "ĠDunk": 456,
      "urn": 457,
      "irk": 458,
      "),": 459,
      "rist": 460,
      "Ġact": 461,
      "ins": 462,
      "ition": 463,
      "Ġpre": 464,
      "ely": 465,
      "ĠCobb": 466,
      "ress": 467,
      "Ġsec": 468,
      "iz": 469,
      "Ġar": 470,
      "ict": 471,
      "ould": 472,
      "Ġalso": 473,
      "ĠChrist": 474,
      "ip": 475,
      "oy": 476,
      "pe": 477,
      "per": 478,
      "ward": 479,
      "Ġare": 480,
      "Ġ200": 481,
      "ack": 482,
      "Ġwork": 483,
      "The": 484,
      "Ġwe": 485,
      "Ġwhe": 486,
      "ome": 487,
      "Ġrele": 488,
      "ĠGord": 489,
      "ĠUn": 490,
      "ĠDunkirk": 491,
      "ĠGordon": 492,
      "bl": 493,
      "vel": 494,
      "ally": 495,
      "ĠSt": 496,
      "Ġchar": 497,
      "ale": 498,
      "one": 499,
      "reat": 500,
      "Ġthem": 501,
      "Ġtheir": 502,
      "Ġser": 503,
      "ros": 504,
      "ĠAl": 505,
      "ign": 506,
      "Ġnot": 507,
      "Ġall": 508,
      "\",": 509,
      "eop": 510,
      "Ġup": 511,
      "ather": 512,
      "Ġcan": 513,
      "Ġmore": 514,
      "ement": 515,
      "ears": 516,
      "irect": 517,
      "eople": 518,
      "ber": 519,
      "fer": 520,
      "ust": 521,
      "ons": 522,
      "ance": 523,
      "Ġover": 524,
      "Ġpart": 525,
      "ics": 526,
      "Ġdes": 527,
      "ake": 528,
      "Ġatt": 529,
      "ound": 530,
      "hys": 531,
      "Ġcharact": 532,
      "ry": 533,
      "Ġman": 534,
      "ase": 535,
      "ĠRob": 536,
      "Ġits": 537,
      "Ġinto": 538,
      ".\"": 539,
      "In": 540,
      "ĠY": 541,
      "Ġafter": 542,
      "Ġpeople": 543,
      "elf": 544,
      "opher": 545,
      "fic": 546,
      "ray": 547,
      "hed": 548,
      "ens": 549,
      "ish": 550,
      "Ġso": 551,
      "ited": 552,
      "ick": 553,
      "Ġthan": 554,
      "Ġbeen": 555,
      "ident": 556,
      "ĠMan": 557,
      "irst": 558,
      "ĠEn": 559,
      "ĠAng": 560,
      "are": 561,
      "ble": 562,
      "ures": 563,
      "inal": 564,
      "Ġfirst": 565,
      "Ġper": 566,
      "Ġmay": 567,
      "ĠBane": 568,
      "ception": 569,
      "Ġem": 570,
      "uring": 571,
      "Ġher": 572,
      "Ġabout": 573,
      "ĠChristopher": 574,
      "Ġad": 575,
      "Ġag": 576,
      "Ġcl": 577,
      "Ġstory": 578,
      "rib": 579,
      "een": 580,
      "fore": 581,
      "low": 582,
      "the": 583,
      "vent": 584,
      "arn": 585,
      "Ġcr": 586,
      "Ġinf": 587,
      "ions": 588,
      "ĠIt": 589,
      "aking": 590,
      "Ġrole": 591,
      "ied": 592,
      "ubl": 593,
      "Ġtime": 594,
      "Ġtwo": 595,
      "ere": 596,
      "ree": 597,
      "Ġother": 598,
      "Ġpers": 599,
      "ĠCity": 600,
      "Ġbeing": 601,
      "ĠNe": 602,
      "ose": 603,
      "ause": 604,
      "cad": 605,
      "du": 606,
      "ke": 607,
      "Ġacc": 608,
      "ite": 609,
      "Ġphys": 610,
      "lear": 611,
      "ĠBeg": 612,
      "Ġbefore": 613,
      "ĠDent": 614,
      "Ġcomm": 615,
      "oker": 616,
      "Ġimp": 617,
      "Ġcharacter": 618,
      "ĠBegins": 619,
      "gl": 620,
      "ook": 621,
      "phy": 622,
      "rin": 623,
      "Ġen": 624,
      "hel": 625,
      "Ġinter": 626,
      "Ġdirect": 627,
      "Ġthis": 628,
      "Ġlater": 629,
      "ĠRa": 630,
      "Ġstud": 631,
      "own": 632,
      "Ġgo": 633,
      "Ġsuch": 634,
      "oung": 635,
      "Ġdisord": 636,
      "rises": 637,
      "aw": 638,
      "ck": 639,
      "ream": 640,
      "Ġsci": 641,
      "orm": 642,
      "Ġfather": 643,
      "Ġwere": 644,
      "Ġdo": 645,
      "ough": 646,
      "ĠAward": 647,
      "ĠJoker": 648,
      "ĠAngier": 649,
      "ron": 650,
      "te": 651,
      "ten": 652,
      "ween": 653,
      "Ġsa": 654,
      "Ġout": 655,
      "Ġco": 656,
      "Ġpres": 657,
      "ild": 658,
      "ĠBord": 659,
      "row": 660,
      "ction": 661,
      "ife": 662,
      "able": 663,
      "ĠRobert": 664,
      "ace": 665,
      "ach": 666,
      "oh": 667,
      "ugh": 668,
      "Ġj": 669,
      "ates": 670,
      "ises": 671,
      "Ġsy": 672,
      "Ġwrit": 673,
      "Ġpubl": 674,
      "Ġdif": 675,
      "ĠBl": 676,
      "Ġbet": 677,
      "ivers": 678,
      "ĠGh": 679,
      "cial": 680,
      "Ġworld": 681,
      "Ġplay": 682,
      "Ġpolice": 683,
      "Ġreleased": 684,
      "emento": 685,
      "ix": 686,
      "prises": 687,
      "Ġsp": 688,
      "Ġcast": 689,
      "Ġbl": 690,
      "ings": 691,
      "Ġrec": 692,
      "Ġreve": 693,
      "ollow": 694,
      "ames": 695,
      "get": 696,
      "Ġunder": 697,
      "ovel": 698,
      "Ġagain": 699,
      "ĠNew": 700,
      "ĠBorden": 701,
      "ĠGhul": 702,
      "Ġreveal": 703,
      "ful": 704,
      "ger": 705,
      "ious": 706,
      "ning": 707,
      "self": 708,
      "ven": 709,
      "Ġthey": 710,
      "ature": 711,
      "ise": 712,
      "Ġport": 713,
      "ality": 714,
      "Ġdep": 715,
      "ĠBale": 716,
      "ĠTh": 717,
      "Ġrel": 718,
      "Ġret": 719,
      "olog": 720,
      "ĠSc": 721,
      "stig": 722,
      "ays": 723,
      "Ġwhile": 724,
      "ular": 725,
      "ower": 726,
      "Ġgen": 727,
      "ĠLe": 728,
      "Ġdec": 729,
      "Ġkill": 730,
      "Ġused": 731,
      "ces": 732,
      "sp": 733,
      "ved": 734,
      "Ġwould": 735,
      "Ġind": 736,
      "Ġpos": 737,
      "Ġdream": 738,
      "ional": 739,
      "Ġme": 740,
      "Ġmost": 741,
      "omm": 742,
      "ĠBest": 743,
      "Ġnovel": 744,
      "Ġfilmm": 745,
      "ists": 746,
      "Ġsub": 747,
      "achel": 748,
      "ĠInception": 749,
      "ĠAnd": 750,
      "Ġincluding": 751,
      "Ġperson": 752,
      "Ġbetween": 753,
      "ared": 754,
      "bs": 755,
      "crib": 756,
      "oot": 757,
      "ues": 758,
      "Ġtr": 759,
      "rew": 760,
      "Ġshe": 761,
      "ork": 762,
      "Ġduring": 763,
      "Ġmov": 764,
      "und": 765,
      "ĠRachel": 766,
      "very": 767,
      "aken": 768,
      "ock": 769,
      "ffect": 770,
      "Ġwhen": 771,
      "Ġperf": 772,
      "iversity": 773,
      "Ġportray": 774,
      "stige": 775,
      "fred": 776,
      "gan": 777,
      "ject": 778,
      "Ġ2": 779,
      "Ġaw": 780,
      "Ġboth": 781,
      "Ġph": 782,
      "ĠAr": 783,
      "ĠAfter": 784,
      "Ġnuc": 785,
      "ĠRises": 786,
      "Ġcons": 787,
      "Ġhimself": 788,
      "Ġdisc": 789,
      "Ġyears": 790,
      "Ġbecame": 791,
      "ross": 792,
      "Ġdescrib": 793,
      "ĠEnter": 794,
      "cadem": 795,
      ").": 796,
      "ec": 797,
      "lu": 798,
      "led": 799,
      "ph": 800,
      "sion": 801,
      "ually": 802,
      "Ġide": 803,
      "Ġident": 804,
      "reen": 805,
      "isc": 806,
      "ang": 807,
      "Ġcity": 808,
      "Ġinst": 809,
      "Ġpower": 810,
      "lect": 811,
      "ents": 812,
      "other": 813,
      "Ġdeath": 814,
      "ĠInsomnia": 815,
      "Ġexp": 816,
      "Ġ199": 817,
      "ogra": 818,
      "ours": 819,
      "Ġ2012": 820,
      "Ġsecond": 821,
      "Ġinflu": 822,
      "Ġsaid": 823,
      "Ġreturn": 824,
      "Ġnuclear": 825,
      "ĠEnterprises": 826,
      "19": 827,
      "duc": 828,
      "ft": 829,
      "oin": 830,
      "yle": 831,
      "Ġqu": 832,
      "Ġaud": 833,
      "restige": 834,
      "atr": 835,
      "ism": 836,
      "ision": 837,
      "Ġsome": 838,
      "itt": 839,
      "ars": 840,
      "Ġcre": 841,
      "Ġdist": 842,
      "ily": 843,
      "Ġmed": 844,
      "Ġmet": 845,
      "Ġreal": 846,
      "ĠAmer": 847,
      "chn": 848,
      "ade": 849,
      "ĠMur": 850,
      "ember": 851,
      "ĠFilm": 852,
      "rug": 853,
      "illion": 854,
      "aving": 855,
      "Ġchild": 856,
      "ically": 857,
      "soci": 858,
      "âĢĵ": 859,
      "âĢĶ": 860,
      "ized": 861,
      "velop": 862,
      "ĠAlfred": 863,
      "ĠAmeric": 864,
      "cess": 865,
      "ired": 866,
      "over": 867,
      "ual": 868,
      "uly": 869,
      "vice": 870,
      "wn": 871,
      "Ġ3": 872,
      "ĠV": 873,
      "Ġset": 874,
      "orn": 875,
      "Ġfam": 876,
      "Ġfear": 877,
      "Ġwill": 878,
      "Ġcor": 879,
      "Ġinv": 880,
      "Ġbro": 881,
      "Ġmod": 882,
      "Ġrev": 883,
      "Ġrece": 884,
      "ives": 885,
      "iving": 886,
      "ĠJuly": 887,
      "ety": 888,
      "akes": 889,
      "Ġprodu": 890,
      "Ġlead": 891,
      "ody": 892,
      "Ġ195": 893,
      "Ġtrail": 894,
      "ĠUniversity": 895,
      "Ġpublic": 896,
      "ĠAndrew": 897,
      "ĠMurphy": 898,
      "00": 899,
      "ced": 900,
      "ever": 901,
      "ib": 902,
      "ox": 903,
      "sy": 904,
      "Ġ/": 905,
      "Ġra": 906,
      "hen": 907,
      "ered": 908,
      "ret": 909,
      "enn": 910,
      "any": 911,
      "Ġfl": 912,
      "Ġfind": 913,
      "Ġwant": 914,
      "Ġwell": 915,
      "arr": 916,
      "Ġbest": 917,
      "Ġpop": 918,
      "Ġoffic": 919,
      "Ġhours": 920,
      "Ġdest": 921,
      "Ġmon": 922,
      "ass": 923,
      "Ġrem": 924,
      "Ġrep": 925,
      "Ġass": 926,
      "Ġassoci": 927,
      "olle": 928,
      "ĠAcadem": 929,
      "ĠSh": 930,
      "amed": 931,
      "Ġevent": 932,
      "ury": 933,
      "Ġhist": 934,
      "ived": 935,
      "tern": 936,
      "ute": 937,
      "ĠJames": 938,
      "rupt": 939,
      "Ġdevelop": 940,
      "Ġsever": 941,
      "Ġincre": 942,
      "iew": 943,
      "rison": 944,
      "âĢĬ": 945,
      "Ġtechn": 946,
      "Ġwhere": 947,
      "Ġseries": 948,
      "arner": 949,
      "Ġdisorder": 950,
      "ohn": 951,
      "Ġaudi": 952,
      "ĠAcademy": 953,
      "lp": 954,
      "ness": 955,
      "ood": 956,
      "pect": 957,
      "ator": 958,
      "ission": 959,
      "orld": 960,
      "Ġfollow": 961,
      "Ġcam": 962,
      "Ġbom": 963,
      "ility": 964,
      "Ġmen": 965,
      "Ġmur": 966,
      "Ġmag": 967,
      "ĠBrit": 968,
      "rote": 969,
      "stell": 970,
      "ĠPri": 971,
      "une": 972,
      "terstell": 973,
      "ĠRe": 974,
      "Ġconf": 975,
      "ific": 976,
      "Ġsucc": 977,
      "Ġext": 978,
      "Ġ196": 979,
      "Ġyoung": 980,
      "Ġart": 981,
      "ficult": 982,
      "Ġcrim": 983,
      "Ġscience": 984,
      "Ġagainst": 985,
      "Ġfilmmak": 986,
      "Ġdescribed": 987,
      "ĠAmerican": 988,
      "Ġsuccess": 989,
      "..": 990,
      "ait": 991,
      "dition": 992,
      "ike": 993,
      "ting": 994,
      "Ġ8": 995,
      "Ġtw": 996,
      "hem": 997,
      "hero": 998,
      "Ġthese": 999,
      "ating": 1000,
      "ene": 1001,
      "Ġspe": 1002,
      "Ġfig": 1003,
      "Ġfall": 1004,
      "Ġwrote": 1005,
      "ities": 1006,
      "Ġany": 1007,
      "arge": 1008,
      "Ġcent": 1009,
      "Ġcall": 1010,
      "Ġcaus": 1011,
      "Ġcause": 1012,
      "Ġprison": 1013,
      "Ġhigh": 1014,
      "Ġday": 1015,
      "Ġdrug": 1016,
      "Ġmade": 1017,
      "ĠBros": 1018,
      "rol": 1019,
      "round": 1020,
      "ented": 1021,
      "Ġreg": 1022,
      "ĠSum": 1023,
      "ĠCran": 1024,
      "Ġthro": 1025,
      "Ġlong": 1026,
      "Ġnight": 1027,
      "usion": 1028,
      "Ġhelp": 1029,
      "ively": 1030,
      "ĠMal": 1031,
      "ird": 1032,
      "ĠWarner": 1033,
      "ows": 1034,
      "ĠJon": 1035,
      "ĠJohn": 1036,
      "oss": 1037,
      "ract": 1038,
      "Ġlevel": 1039,
      "athan": 1040,
      "Ġcompany": 1041,
      "Ġinclude": 1042,
      "Ġcontin": 1043,
      "Ġfeat": 1044,
      "Ġprev": 1045,
      "Ġrelease": 1046,
      "Ġdifficult": 1047,
      "Ġmurder": 1048,
      "terstellar": 1049,
      "ĠCrane": 1050,
      "Nolan": 1051,
      "ail": 1052,
      "aren": 1053,
      "ek": 1054,
      "ex": 1055,
      "gn": 1056,
      "hip": 1057,
      "mm": 1058,
      "mary": 1059,
      "nown": 1060,
      "ram": 1061,
      "ug": 1062,
      "Ġ6": 1063,
      "Ġed": 1064,
      "Ġvery": 1065,
      "Ġter": 1066,
      "Ġtest": 1067,
      "hest": 1068,
      "ink": 1069,
      "att": 1070,
      "atic": 1071,
      "ative": 1072,
      "Ġsur": 1073,
      "Ġown": 1074,
      "arl": 1075,
      "Ġpain": 1076,
      "ley": 1077,
      "Ġoften": 1078,
      "ald": 1079,
      "ices": 1080,
      "ications": 1081,
      "Ġdi": 1082,
      "Ġma": 1083,
      "Ġmaking": 1084,
      "omic": 1085,
      "ĠSch": 1086,
      "Ġthough": 1087,
      "Ġbeh": 1088,
      "ĠDav": 1089,
      "Ġlight": 1090,
      "urity": 1091,
      "ĠPrestige": 1092,
      "ĠGu": 1093,
      "ided": 1094,
      "ĠMemento": 1095,
      "ĠHol": 1096,
      "ĠHow": 1097,
      "aine": 1098,
      "ains": 1099,
      "Ġsuper": 1100,
      "Ġprof": 1101,
      "Ġprot": 1102,
      "ount": 1103,
      "ague": 1104,
      "Ġappear": 1105,
      "Ġbecome": 1106,
      "Ġscreen": 1107,
      "Ġweap": 1108,
      "ĠUnited": 1109,
      "ĠYoung": 1110,
      "Ġgener": 1111,
      "Ġawaken": 1112,
      "Ġfamily": 1113,
      "Ġtrailer": 1114,
      "Ġmonth": 1115,
      "Ġseveral": 1116,
      "Ġbomb": 1117,
      "ĠBritish": 1118,
      "ĠSummary": 1119,
      "ĠJonathan": 1120,
      "ael": 1121,
      "eep": 1122,
      "hing": 1123,
      "iam": 1124,
      "ty": 1125,
      "ton": 1126,
      "Ġ$": 1127,
      "ĠZ": 1128,
      "Ġ[": 1129,
      "Ġes": 1130,
      "Ġent": 1131,
      "ĠâĢĵ": 1132,
      "Ġtru": 1133,
      "Ġtran": 1134,
      "ern": 1135,
      "ately": 1136,
      "ished": 1137,
      "Ġsm": 1138,
      "Ġsix": 1139,
      "Ġwife": 1140,
      "arly": 1141,
      "Ġcrit": 1142,
      "Ġpur": 1143,
      "Ġprom": 1144,
      "Ġpsy": 1145,
      "Ġhy": 1146,
      "Ġdu": 1147,
      "Ġmin": 1148,
      "Ġmain": 1149,
      "roy": 1150,
      "Ġref": 1151,
      "elie": 1152,
      "ĠAd": 1153,
      "ĠAs": 1154,
      "ĠAt": 1155,
      "ĠComm": 1156,
      "ĠCaine": 1157,
      "ighest": 1158,
      "aying": 1159,
      "Ġnom": 1160,
      "Ġnamed": 1161,
      "iven": 1162,
      "Ġonly": 1163,
      "ĠWh": 1164,
      "empt": 1165,
      "ĠFran": 1166,
      "ĠFisc": 1167,
      "ĠOld": 1168,
      "Ġgreat": 1169,
      "ĠLond": 1170,
      "ified": 1171,
      "ained": 1172,
      "Ġsupp": 1173,
      "orth": 1174,
      "ardy": 1175,
      "Ġorig": 1176,
      "ichael": 1177,
      "Ġunc": 1178,
      "plic": 1179,
      "ouse": 1180,
      "ended": 1181,
      "Ġyou": 1182,
      "Ġappears": 1183,
      "Ġnew": 1184,
      "Ġneed": 1185,
      "Ġcomple": 1186,
      "rench": 1187,
      "Ġpolit": 1188,
      "ĠYork": 1189,
      "Ġcrime": 1190,
      "Ġdirector": 1191,
      "Ġdisorders": 1192,
      "Ġscient": 1193,
      "ĠAwards": 1194,
      "Ġreveals": 1195,
      "ĠLeague": 1196,
      "Ġidea": 1197,
      "Ġidentity": 1198,
      "oint": 1199,
      "Ġreceived": 1200,
      "Ġassociated": 1201,
      "Ġthrough": 1202,
      "Ġprevious": 1203,
      "ĠDavid": 1204,
      "Ġsuperhero": 1205,
      "Ġprofess": 1206,
      "Ġpsych": 1207,
      "ĠFischer": 1208,
      "ĠOldman": 1209,
      "ĠLondon": 1210,
      "70": 1211,
      "Memento": 1212,
      "Oppenheimer": 1213,
      "born": 1214,
      "ev": 1215,
      "eter": 1216,
      "ead": 1217,
      "io": 1218,
      "la": 1219,
      "less": 1220,
      "min": 1221,
      "mpt": 1222,
      "uro": 1223,
      "Ġtell": 1224,
      "Ġtreat": 1225,
      "Ġtakes": 1226,
      "Ġam": 1227,
      "hes": 1228,
      "Ġthen": 1229,
      "Ġtheatr": 1230,
      "Ġsom": 1231,
      "Ġsign": 1232,
      "ans": 1233,
      "Ġfound": 1234,
      "Ġanother": 1235,
      "aring": 1236,
      "Ġcould": 1237,
      "Ġinsp": 1238,
      "Ġbased": 1239,
      "Ġback": 1240,
      "Ġbook": 1241,
      "Ġparen": 1242,
      "lev": 1243,
      "alf": 1244,
      "Ġdet": 1245,
      "ilt": 1246,
      "Ġmus": 1247,
      "Ġmort": 1248,
      "immer": 1249,
      "ential": 1250,
      "Ġrefer": 1251,
      "old": 1252,
      "ĠSait": 1253,
      "Ġthose": 1254,
      "Ġlist": 1255,
      "Ġlife": 1256,
      "Ġlike": 1257,
      "Ġeach": 1258,
      "Ġname": 1259,
      "ĠPro": 1260,
      "uss": 1261,
      "ĠHis": 1262,
      "ĠHar": 1263,
      "istic": 1264,
      "ĠFrench": 1265,
      "ational": 1266,
      "osed": 1267,
      "iagn": 1268,
      "illian": 1269,
      "aves": 1270,
      "Ġcomb": 1271,
      "Ġ202": 1272,
      "orts": 1273,
      "ney": 1274,
      "Ġleft": 1275,
      "Ġexpl": 1276,
      "Ġsleeping": 1277,
      "Ġkeep": 1278,
      "Ġplot": 1279,
      "Ġuse": 1280,
      "Ġusing": 1281,
      "ians": 1282,
      "onde": 1283,
      "Ġcontrol": 1284,
      "Ġfeel": 1285,
      "Ġteam": 1286,
      "Ġsecurity": 1287,
      "iction": 1288,
      "Ġattempt": 1289,
      "Ġmany": 1290,
      "Ġphysics": 1291,
      "Ġinterest": 1292,
      "Ġdiffer": 1293,
      "Ġperform": 1294,
      "rossing": 1295,
      "Ġcreated": 1296,
      "Ġbrother": 1297,
      "Ġproduction": 1298,
      "Ġdestroy": 1299,
      "Ġhistory": 1300,
      "Ġcriminal": 1301,
      "Ġcalled": 1302,
      "ĠHowever": 1303,
      "Ġpolitical": 1304,
      "mptom": 1305,
      "Ġtheatrical": 1306,
      "ĠSaito": 1307,
      "10": 1308,
      "CL": 1309,
      "cap": 1310,
      "crow": 1311,
      "gest": 1312,
      "grossing": 1313,
      "ible": 1314,
      "ked": 1315,
      "ler": 1316,
      "oid": 1317,
      "ple": 1318,
      "side": 1319,
      "ves": 1320,
      "Ã©": 1321,
      "Ġtake": 1322,
      "ince": 1323,
      "enet": 1324,
      "ense": 1325,
      "Ġsame": 1326,
      "ors": 1327,
      "orman": 1328,
      "itive": 1329,
      "ese": 1330,
      "Ġold": 1331,
      "Ġca": 1332,
      "Ġcolle": 1333,
      "Ġbr": 1334,
      "Ġbelie": 1335,
      "Ġpat": 1336,
      "Ġhon": 1337,
      "Ġhaving": 1338,
      "Ġdue": 1339,
      "ilant": 1340,
      "Ġmake": 1341,
      "Ġmillion": 1342,
      "omas": 1343,
      "elt": 1344,
      "ĠAri": 1345,
      "Ġthree": 1346,
      "ĠDe": 1347,
      "Ġeffect": 1348,
      "Ġno": 1349,
      "Ġhero": 1350,
      "adows": 1351,
      "ulation": 1352,
      "ĠJo": 1353,
      "ĠOr": 1354,
      "Ġcondition": 1355,
      "Ġ18": 1356,
      "200": 1357,
      "riend": 1358,
      "Ġdef": 1359,
      "Ġproduc": 1360,
      "Ġleg": 1361,
      "Ġvig": 1362,
      "Ġ198": 1363,
      "ogn": 1364,
      "ploy": 1365,
      "Ġshould": 1366,
      "Ġplace": 1367,
      "Ġuses": 1368,
      "Ġappe": 1369,
      "Ġbecom": 1370,
      "Ġ2010": 1371,
      "vey": 1372,
      "Ġtrain": 1373,
      "Ġprem": 1374,
      "arecrow": 1375,
      "Ġdirected": 1376,
      "Ġwritten": 1377,
      "ĠThomas": 1378,
      "ology": 1379,
      "ography": 1380,
      "ĠShadows": 1381,
      "Ġcamp": 1382,
      "Ġmagic": 1383,
      "Ġdifficulty": 1384,
      "Ġmonths": 1385,
      "ĠZimmer": 1386,
      "Ġtrans": 1387,
      "Ġtreatment": 1388,
      "Ġparents": 1389,
      "Ġmortality": 1390,
      "Ġdifferent": 1391,
      "mptoms": 1392,
      "au": 1393,
      "app": 1394,
      "air": 1395,
      "but": 1396,
      "cing": 1397,
      "cons": 1398,
      "gers": 1399,
      "hood": 1400,
      "iel": 1401,
      "iety": 1402,
      "les": 1403,
      "mp": 1404,
      "ner": 1405,
      "rad": 1406,
      "rict": 1407,
      "time": 1408,
      "uch": 1409,
      "ured": 1410,
      "wh": 1411,
      "worth": 1412,
      "ying": 1413,
      "ze": 1414,
      "Ġel": 1415,
      "Ġturn": 1416,
      "Ġage": 1417,
      "inem": 1418,
      "ination": 1419,
      "iness": 1420,
      "Ġsound": 1421,
      "Ġfour": 1422,
      "Ġfelt": 1423,
      "Ġwon": 1424,
      "Ġwom": 1425,
      "Ġway": 1426,
      "Ġcar": 1427,
      "Ġbu": 1428,
      "Ġbur": 1429,
      "Ġbus": 1430,
      "Ġbody": 1431,
      "Ġpost": 1432,
      "Ġprin": 1433,
      "Ġoff": 1434,
      "alc": 1435,
      "Ġhow": 1436,
      "Ġhalf": 1437,
      "Ġdark": 1438,
      "ilog": 1439,
      "Ġmor": 1440,
      "Ġmil": 1441,
      "Ġread": 1442,
      "Ġasleep": 1443,
      "ĠSp": 1444,
      "Ġthird": 1445,
      "Ġlook": 1446,
      "Ġlarge": 1447,
      "Ġep": 1448,
      "Ġnum": 1449,
      "lywo": 1450,
      "ĠGoy": 1451,
      "ters": 1452,
      "chan": 1453,
      "adne": 1454,
      "ution": 1455,
      "ĠMa": 1456,
      "ĠWill": 1457,
      "ĠJos": 1458,
      "ets": 1459,
      "ĠFox": 1460,
      "Ġconc": 1461,
      "Ġ16": 1462,
      "Ġsee": 1463,
      "cious": 1464,
      "ached": 1465,
      "orted": 1466,
      "Ġlect": 1467,
      "ode": 1468,
      "ogue": 1469,
      "rand": 1470,
      "Ġbutler": 1471,
      "Ġshow": 1472,
      "ocus": 1473,
      "ertain": 1474,
      "Ġappro": 1475,
      "Ġresear": 1476,
      "Ġbecause": 1477,
      "Ġscore": 1478,
      "Ġcontrib": 1479,
      "ressed": 1480,
      "Ġsecret": 1481,
      "wards": 1482,
      "ĠStates": 1483,
      "ĠEngl": 1484,
      "Ġemploy": 1485,
      "Ġcommon": 1486,
      "Ġjust": 1487,
      "ĠBlonde": 1488,
      "Ġblock": 1489,
      "ollowing": 1490,
      "ĠScarecrow": 1491,
      "Ġkilling": 1492,
      "Ġpersonal": 1493,
      "Ġmovie": 1494,
      "Ġconsid": 1495,
      "Ġpowerful": 1496,
      "Ġmedications": 1497,
      "Ġ30": 1498,
      "Ġcorrupt": 1499,
      "Ġpopular": 1500,
      "ĠPriest": 1501,
      "Ġfilmmaker": 1502,
      "Ġspecial": 1503,
      "Ġfigure": 1504,
      "Ġfalling": 1505,
      "Ġbehind": 1506,
      "Ġweapons": 1507,
      "Ġpromot": 1508,
      "ĠWhile": 1509,
      "Ġprofessional": 1510,
      "Ġsomet": 1511,
      "capes": 1512,
      "ĠAriadne": 1513,
      "Ġvigilant": 1514,
      "Ġburgl": 1515,
      "ilogy": 1516,
      "lywood": 1517,
      "ĠGoyer": 1518,
      "MA": 1519,
      "aign": 1520,
      "be": 1521,
      "by": 1522,
      "bers": 1523,
      "bust": 1524,
      "cri": 1525,
      "eb": 1526,
      "ged": 1527,
      "jor": 1528,
      "jection": 1529,
      "ll": 1530,
      "lo": 1531,
      "line": 1532,
      "ms": 1533,
      "med": 1534,
      "nch": 1535,
      "por": 1536,
      "pro": 1537,
      "ric": 1538,
      "rim": 1539,
      "set": 1540,
      "to": 1541,
      "tell": 1542,
      "work": 1543,
      "yworth": 1544,
      "Ġ4": 1545,
      "Ġ5": 1546,
      "Ġest": 1547,
      "Ġill": 1548,
      "Ġty": 1549,
      "Ġav": 1550,
      "ina": 1551,
      "inated": 1552,
      "erke": 1553,
      "ony": 1554,
      "Ġthere": 1555,
      "ised": 1556,
      "orney": 1557,
      "Ġfin": 1558,
      "Ġful": 1559,
      "Ġfinal": 1560,
      "Ġfoot": 1561,
      "Ġfriend": 1562,
      "Ġfocus": 1563,
      "eson": 1564,
      "Ġocc": 1565,
      "aries": 1566,
      "Ġbillion": 1567,
      "inger": 1568,
      "Ġoffer": 1569,
      "alia": 1570,
      "Ġdel": 1571,
      "Ġdown": 1572,
      "Ġmas": 1573,
      "Ġmem": 1574,
      "ash": 1575,
      "ĠTenet": 1576,
      "roup": 1577,
      "imes": 1578,
      "imate": 1579,
      "ently": 1580,
      "cept": 1581,
      "ĠSci": 1582,
      "stit": 1583,
      "stem": 1584,
      "ĠDr": 1585,
      "ĠDirect": 1586,
      "Ġlow": 1587,
      "Ġlast": 1588,
      "Ġearly": 1589,
      "ĠPav": 1590,
      "ĠPenn": 1591,
      "ĠMichael": 1592,
      "ĠHardy": 1593,
      "eph": 1594,
      "ept": 1595,
      "ĠWest": 1596,
      "ĠFollowing": 1597,
      "ĠOn": 1598,
      "Ġgiven": 1599,
      "Ġgroup": 1600,
      "ĠKate": 1601,
      "ĠKyle": 1602,
      "ĠLu": 1603,
      "ĠLos": 1604,
      "Ġcomic": 1605,
      "Ġseem": 1606,
      "ored": 1607,
      "Ġatomic": 1608,
      "ĠInterstellar": 1609,
      "Ġlearn": 1610,
      "Ġexper": 1611,
      "Ġ194": 1612,
      "thur": 1613,
      "though": 1614,
      "ove": 1615,
      "ends": 1616,
      "Ġplan": 1617,
      "que": 1618,
      "aps": 1619,
      "Ġresult": 1620,
      "Ġrespect": 1621,
      "Ġ2011": 1622,
      "ationship": 1623,
      "Ġfew": 1624,
      "Ġrun": 1625,
      "ands": 1626,
      "Ġactor": 1627,
      "ression": 1628,
      "Ġ2005": 1629,
      "Ġwebs": 1630,
      "Ġweek": 1631,
      "Ġtheme": 1632,
      "Ġcharacters": 1633,
      "Ġsymptoms": 1634,
      "Ġsystem": 1635,
      "Ġrecomm": 1636,
      "ĠThis": 1637,
      "Ġrelationship": 1638,
      "ological": 1639,
      "Ġdecision": 1640,
      "Ġposition": 1641,
      "Ġperforman": 1642,
      "Ġinstead": 1643,
      "Ġincreased": 1644,
      "Ġaudience": 1645,
      "issioner": 1646,
      "Ġmurdered": 1647,
      "Ġmajor": 1648,
      "ĠGuy": 1649,
      "ĠHollywood": 1650,
      "Ġawakening": 1651,
      "Ġpurs": 1652,
      "Ġduplic": 1653,
      "Ġcampaign": 1654,
      "Ġblockbust": 1655,
      "Ġsomething": 1656,
      "Ġvigilante": 1657,
      "ĠPavel": 1658,
      "ĠPennyworth": 1659,
      "EO": 1660,
      "cy": 1661,
      "cise": 1662,
      "ds": 1663,
      "den": 1664,
      "gi": 1665,
      "ggest": 1666,
      "ham": 1667,
      "hard": 1668,
      "ipp": 1669,
      "lin": 1670,
      "ling": 1671,
      "men": 1672,
      "not": 1673,
      "now": 1674,
      "nment": 1675,
      "of": 1676,
      "ool": 1677,
      "ror": 1678,
      "sh": 1679,
      "uf": 1680,
      "ued": 1681,
      "vid": 1682,
      "vices": 1683,
      "world": 1684,
      "xim": 1685,
      "xiety": 1686,
      "Ġ'": 1687,
      "Ġord": 1688,
      "Ġget": 1689,
      "inning": 1690,
      "ery": 1691,
      "atan": 1692,
      "atch": 1693,
      "ences": 1694,
      "ising": 1695,
      "Ġson": 1696,
      "Ġsim": 1697,
      "Ġsch": 1698,
      "orb": 1699,
      "organ": 1700,
      "Ġfact": 1701,
      "Ġfiction": 1702,
      "iting": 1703,
      "Ġoper": 1704,
      "arm": 1705,
      "Ġcur": 1706,
      "Ġcreat": 1707,
      "Ġchem": 1708,
      "Ġbi": 1709,
      "Ġburn": 1710,
      "als": 1711,
      "icular": 1712,
      "Ġda": 1713,
      "Ġdone": 1714,
      "Ġdied": 1715,
      "Ġdiagn": 1716,
      "ilos": 1717,
      "Ġmy": 1718,
      "Ġmind": 1719,
      "Ġmone": 1720,
      "Ġmuch": 1721,
      "asing": 1722,
      "ĠTalia": 1723,
      "imb": 1724,
      "olution": 1725,
      "ĠSo": 1726,
      "ĠSer": 1727,
      "ĠSpe": 1728,
      "ĠCl": 1729,
      "ĠCal": 1730,
      "ĠCom": 1731,
      "Ġthing": 1732,
      "ĠDag": 1733,
      "Ġla": 1734,
      "Ġlat": 1735,
      "Ġlate": 1736,
      "Ġloc": 1737,
      "Ġeight": 1738,
      "Ġeff": 1739,
      "Ġnow": 1740,
      "Ġnature": 1741,
      "Ġnarr": 1742,
      "ĠPeter": 1743,
      "Ġformer": 1744,
      "Ġheld": 1745,
      "gether": 1746,
      "term": 1747,
      "Ġwhat": 1748,
      "utive": 1749,
      "ĠRo": 1750,
      "ĠMark": 1751,
      "ĠIMA": 1752,
      "Ġstr": 1753,
      "Ġstill": 1754,
      "Ġstated": 1755,
      "Ġstress": 1756,
      "ĠWhen": 1757,
      "ĠWorld": 1758,
      "ĠWatan": 1759,
      "ethe": 1760,
      "ĠFree": 1761,
      "ĠFalc": 1762,
      "ĠOCL": 1763,
      "ruct": 1764,
      "ope": 1765,
      "oph": 1766,
      "Ġ100": 1767,
      "Ġgu": 1768,
      "ries": 1769,
      "ĠKing": 1770,
      "Ġdevice": 1771,
      "Ġsuggest": 1772,
      "Ġsequ": 1773,
      "Ġprol": 1774,
      "Ġproble": 1775,
      "cius": 1776,
      "ĠEd": 1777,
      "ĠEames": 1778,
      "ĠEuro": 1779,
      "Ġleaves": 1780,
      "Ġvo": 1781,
      "Ġvers": 1782,
      "Ġvill": 1783,
      "Ġexec": 1784,
      "Ġ197": 1785,
      "artment": 1786,
      "Ġorgan": 1787,
      "abe": 1788,
      "Ġkick": 1789,
      "Ġshort": 1790,
      "ĠUS": 1791,
      "Ġnever": 1792,
      "Ġcompu": 1793,
      "Ġcompared": 1794,
      "Ġ2019": 1795,
      "Ġimag": 1796,
      "Ġincluded": 1797,
      "Ġincludes": 1798,
      "rent": 1799,
      "Ġright": 1800,
      "Ġaction": 1801,
      "Ġactiv": 1802,
      "Ġprep": 1803,
      "Ġarch": 1804,
      "icture": 1805,
      "ĠChristian": 1806,
      "ipment": 1807,
      "Ġ2000": 1808,
      "Ġ2008": 1809,
      "Ġworking": 1810,
      "Ġthemes": 1811,
      "ĠRobin": 1812,
      "Ġmayor": 1813,
      "Ġstorytell": 1814,
      "Ġcommune": 1815,
      "Ġstudio": 1816,
      "ronic": 1817,
      "Ġpresented": 1818,
      "Ġpublished": 1819,
      "gett": 1820,
      "Ġrevealed": 1821,
      "Ġdepression": 1822,
      "Ġposs": 1823,
      "Ġmeas": 1824,
      "Ġfilmmaking": 1825,
      "Ġsubcons": 1826,
      "ĠArthur": 1827,
      "Ġdiscover": 1828,
      "ograph": 1829,
      "Ġinfluential": 1830,
      "198": 1831,
      "Ġquest": 1832,
      "Ġinvol": 1833,
      "Ġfinds": 1834,
      "Ġofficers": 1835,
      "Ġofficial": 1836,
      "Ġevents": 1837,
      "...": 1838,
      "Ġcentury": 1839,
      "Ġfeatures": 1840,
      "Ġescapes": 1841,
      "Ġcritics": 1842,
      "ĠFrance": 1843,
      "Ġoriginal": 1844,
      "Ġscientists": 1845,
      "Ġthroughout": 1846,
      "Ġappeared": 1847,
      "Ġpremier": 1848,
      "Ġmagicians": 1849,
      "Ġmilit": 1850,
      "Ġcontribut": 1851,
      "Ġoccur": 1852,
      "ĠLucius": 1853,
      "Ġperformance": 1854,
      "Ġduplicate": 1855,
      "hardt": 1856,
      "Ġmoney": 1857,
      "ĠDaggett": 1858,
      "ĠIMAX": 1859,
      "ĠWatanabe": 1860,
      "ĠFreeman": 1861,
      "ĠFalcone": 1862,
      "ĠOCLC": 1863,
      "Ġexecutive": 1864,
      "Ġsubconscious": 1865,
      ",\"": 1866,
      "97": 1867,
      "apt": 1868,
      "bum": 1869,
      "cle": 1870,
      "eh": 1871,
      "ean": 1872,
      "gen": 1873,
      "ging": 1874,
      "his": 1875,
      "hart": 1876,
      "highest": 1877,
      "ik": 1878,
      "ior": 1879,
      "ks": 1880,
      "known": 1881,
      "lot": 1882,
      "law": 1883,
      "mit": 1884,
      "mish": 1885,
      "pen": 1886,
      "pert": 1887,
      "rill": 1888,
      "rary": 1889,
      "tra": 1890,
      "tain": 1891,
      "ys": 1892,
      "Ã¶": 1893,
      "Ġris": 1894,
      "Ġtas": 1895,
      "Ġtri": 1896,
      "Ġtaken": 1897,
      "Ġaffect": 1898,
      "Ġaround": 1899,
      "inary": 1900,
      "ercise": 1901,
      "ones": 1902,
      "enes": 1903,
      "isual": 1904,
      "isode": 1905,
      "Ġsince": 1906,
      "ances": 1907,
      "ories": 1908,
      "edger": 1909,
      "its": 1910,
      "iter": 1911,
      "esla": 1912,
      "Ġobs": 1913,
      "arb": 1914,
      "arc": 1915,
      "arch": 1916,
      "Ġcir": 1917,
      "Ġcult": 1918,
      "Ġclear": 1919,
      "Ġcinem": 1920,
      "Ġbre": 1921,
      "Ġbed": 1922,
      "Ġbox": 1923,
      "Ġpar": 1924,
      "Ġpri": 1925,
      "Ġpract": 1926,
      "let": 1927,
      "lemish": 1928,
      "icist": 1929,
      "Ġha": 1930,
      "Ġhall": 1931,
      "Ġhome": 1932,
      "Ġhighest": 1933,
      "Ġdr": 1934,
      "Ġdid": 1935,
      "Ġtoo": 1936,
      "Ġtook": 1937,
      "Ġtogether": 1938,
      "Ġment": 1939,
      "Ġmark": 1940,
      "asy": 1941,
      "ĠBald": 1942,
      "ĠTom": 1943,
      "ĠTwo": 1944,
      "rou": 1945,
      "ctor": 1946,
      "enth": 1947,
      "Ġreb": 1948,
      "eles": 1949,
      "olas": 1950,
      "ĠSm": 1951,
      "ĠCot": 1952,
      "ĠColle": 1953,
      "ĠCillian": 1954,
      "ĠCEO": 1955,
      "Ġthreat": 1956,
      "Ġthink": 1957,
      "stand": 1958,
      "Ġbeg": 1959,
      "ĠDi": 1960,
      "ĠDaw": 1961,
      "Ġlif": 1962,
      "Ġlab": 1963,
      "Ġlack": 1964,
      "Ġliter": 1965,
      "Ġever": 1966,
      "Ġequ": 1967,
      "Ġevery": 1968,
      "ĠPh": 1969,
      "ĠPlot": 1970,
      "usuf": 1971,
      "Ġform": 1972,
      "Ġfilmed": 1973,
      "Ġheav": 1974,
      "Ġheart": 1975,
      "lying": 1976,
      "Ġonline": 1977,
      "ades": 1978,
      "uth": 1979,
      "utes": 1980,
      "Ġwithin": 1981,
      "Ġstop": 1982,
      "Ġstage": 1983,
      "ĠWe": 1984,
      "ĠFl": 1985,
      "ĠFlemish": 1986,
      "ĠOne": 1987,
      "ruction": 1988,
      "osis": 1989,
      "Ġconv": 1990,
      "Ġconst": 1991,
      "vert": 1992,
      "vernment": 1993,
      "Ġ10": 1994,
      "illard": 1995,
      "Ġalbum": 1996,
      "ording": 1997,
      "ĠLeg": 1998,
      "ĠLedger": 1999,
      "Ġsuit": 2000,
      "Ġseven": 2001,
      "Ġproject": 2002,
      "Ġprocess": 2003,
      "Ġprojection": 2004,
      "ciety": 2005,
      "acy": 2006,
      "acher": 2007,
      "ĠEx": 2008,
      "ateg": 2009,
      "Ġchang": 2010,
      "Ġview": 2011,
      "Ġexercise": 2012,
      "antly": 2013,
      "ument": 2014,
      "overs": 2015,
      "range": 2016,
      "Ġshif": 2017,
      "ĠChill": 2018,
      "Ġintro": 2019,
      "Ġyear": 2020,
      "Ġability": 2021,
      "Ġresp": 2022,
      "ffe": 2023,
      "Ġfeature": 2024,
      "Ġworked": 2025,
      "Ġservice": 2026,
      "Ġallow": 2027,
      "Ġattack": 2028,
      "Ġattorney": 2029,
      "Interstellar": 2030,
      "ensive": 2031,
      "ĠAngeles": 2032,
      "Ġemot": 2033,
      "ĠNeeson": 2034,
      "Ġphysically": 2035,
      "Ġphysicist": 2036,
      "Ġimpro": 2037,
      "Ġimport": 2038,
      "Ġstudents": 2039,
      "Ġgood": 2040,
      "Ġgovernment": 2041,
      "Ġpresent": 2042,
      "ĠBlake": 2043,
      "Ġcasting": 2044,
      "Ġblack": 2045,
      "Ġrecord": 2046,
      "Ġrelated": 2047,
      "Ġdecided": 2048,
      "Ġsubject": 2049,
      "Ġtrick": 2050,
      "Ġtrilogy": 2051,
      "Ġaway": 2052,
      "Ġphot": 2053,
      "Ġideas": 2054,
      "lected": 2055,
      "Ġinfluence": 2056,
      "Ġreturning": 2057,
      "Ġdistrict": 2058,
      "Ġchildren": 2059,
      "Ġchildhood": 2060,
      "Ġmodel": 2061,
      "Ġmodern": 2062,
      "Ġreview": 2063,
      "Ġwanted": 2064,
      "Ġassist": 2065,
      "Ġdeveloping": 2066,
      "Ġfollowed": 2067,
      "Ġfollowing": 2068,
      "Ġfilmmakers": 2069,
      "Ġtwin": 2070,
      "Ġdrugs": 2071,
      "Ġregard": 2072,
      "Ġdiary": 2073,
      "Ġappearance": 2074,
      "Ġsmall": 2075,
      "Ġcomplex": 2076,
      "Ġtells": 2077,
      "Ġinspired": 2078,
      "ĠHarvey": 2079,
      "Ġperformed": 2080,
      "Ġpattern": 2081,
      "Ġconditions": 2082,
      "ognitive": 2083,
      "Ġbecoming": 2084,
      "Ġbusiness": 2085,
      "Ġprints": 2086,
      "Ġepisode": 2087,
      "ĠJoseph": 2088,
      "Ġresearch": 2089,
      "ĠEnglish": 2090,
      "Ġconsidered": 2091,
      "cription": 2092,
      "rimary": 2093,
      "Ġtyp": 2094,
      "ĠScience": 2095,
      "ĠDirector": 2096,
      "Ġwebsite": 2097,
      "ipphardt": 2098,
      "Ġorder": 2099,
      "ĠEurope": 2100,
      "Ġcomputer": 2101,
      "Ġmilitary": 2102,
      "ĠCotillard": 2103,
      "ĠDawes": 2104,
      "'t": 2105,
      "17": 2106,
      "Ch": 2107,
      "Cap": 2108,
      "ET": 2109,
      "He": 2110,
      "IA": 2111,
      "Lev": 2112,
      "Sy": 2113,
      "Tom": 2114,
      "ais": 2115,
      "aim": 2116,
      "aire": 2117,
      "ball": 2118,
      "com": 2119,
      "cent": 2120,
      "coh": 2121,
      "de": 2122,
      "dle": 2123,
      "eel": 2124,
      "fia": 2125,
      "father": 2126,
      "gate": 2127,
      "hum": 2128,
      "haps": 2129,
      "ients": 2130,
      "lus": 2131,
      "mes": 2132,
      "nd": 2133,
      "oor": 2134,
      "ole": 2135,
      "off": 2136,
      "py": 2137,
      "port": 2138,
      "prestige": 2139,
      "ral": 2140,
      "sc": 2141,
      "tical": 2142,
      "uary": 2143,
      "writ": 2144,
      "Ġ7": 2145,
      "Ġif": 2146,
      "Ġend": 2147,
      "Ġtone": 2148,
      "Ġtarge": 2149,
      "Ġtimes": 2150,
      "ines": 2151,
      "erg": 2152,
      "oni": 2153,
      "reg": 2154,
      "Ġtheore": 2155,
      "ats": 2156,
      "Ġself": 2157,
      "Ġsays": 2158,
      "Ġsaying": 2159,
      "anuary": 2160,
      "Ġfre": 2161,
      "Ġfat": 2162,
      "Ġfle": 2163,
      "Ġfight": 2164,
      "Ġfree": 2165,
      "Ġword": 2166,
      "Ġwater": 2167,
      "ital": 2168,
      "itud": 2169,
      "itled": 2170,
      "Ġanxiety": 2171,
      "arious": 2172,
      "Ġcol": 2173,
      "Ġciv": 2174,
      "Ġcred": 2175,
      "Ġcount": 2176,
      "Ġinj": 2177,
      "Ġbig": 2178,
      "Ġboss": 2179,
      "Ġpass": 2180,
      "Ġpicture": 2181,
      "lement": 2182,
      "icot": 2183,
      "Ġhouse": 2184,
      "Ġder": 2185,
      "Ġded": 2186,
      "Ġdiv": 2187,
      "Ġdoc": 2188,
      "Ġdays": 2189,
      "Ġdram": 2190,
      "ilar": 2191,
      "Ġmm": 2192,
      "Ġmat": 2193,
      "Ġmis": 2194,
      "Ġmot": 2195,
      "Ġmid": 2196,
      "Ġmult": 2197,
      "Ġmater": 2198,
      "Ġmix": 2199,
      "Ġmother": 2200,
      "Ġmember": 2201,
      "aser": 2202,
      "ĠBe": 2203,
      "ĠBrow": 2204,
      "ĠTesla": 2205,
      "rop": 2206,
      "Ġreact": 2207,
      "Ġreprises": 2208,
      "Ġreality": 2209,
      "eless": 2210,
      "ellect": 2211,
      "ĠAp": 2212,
      "ĠAven": 2213,
      "ceton": 2214,
      "ĠSound": 2215,
      "ĠCat": 2216,
      "ĠCan": 2217,
      "ĠCol": 2218,
      "ĠCrit": 2219,
      "ĠCast": 2220,
      "amb": 2221,
      "Ġbegan": 2222,
      "ĠDC": 2223,
      "ĠDuc": 2224,
      "ĠDuring": 2225,
      "ayer": 2226,
      "Ġlost": 2227,
      "Ġliving": 2228,
      "Ġearn": 2229,
      "Ġelev": 2230,
      "Ġnear": 2231,
      "urb": 2232,
      "ural": 2233,
      "urice": 2234,
      "ĠPrin": 2235,
      "ĠThese": 2236,
      "Ġfilming": 2237,
      "Ġhench": 2238,
      "ivid": 2239,
      "idge": 2240,
      "unn": 2241,
      "Ġonset": 2242,
      "chie": 2243,
      "ads": 2244,
      "Ġwhom": 2245,
      "Ġwhose": 2246,
      "ĠRep": 2247,
      "ĠReg": 2248,
      "ĠRuss": 2249,
      "ĠMc": 2250,
      "ĠMar": 2251,
      "ĠMay": 2252,
      "ĠMus": 2253,
      "Ġwithout": 2254,
      "ĠNov": 2255,
      "iration": 2256,
      "erson": 2257,
      "Ġstyle": 2258,
      "Ġstars": 2259,
      "Ġstruct": 2260,
      "ĠHath": 2261,
      "epend": 2262,
      "istry": 2263,
      "ĠJr": 2264,
      "ĠJune": 2265,
      "ĠJanuary": 2266,
      "eting": 2267,
      "etwork": 2268,
      "ĠFor": 2269,
      "ĠFeb": 2270,
      "ĠOther": 2271,
      "ruary": 2272,
      "ruption": 2273,
      "osen": 2274,
      "osing": 2275,
      "rain": 2276,
      "Ġ11": 2277,
      "ills": 2278,
      "Ġalcoh": 2279,
      "rio": 2280,
      "ried": 2281,
      "udget": 2282,
      "ĠKipphardt": 2283,
      "ĠLau": 2284,
      "Ġcome": 2285,
      "Ġdeep": 2286,
      "Ġdebut": 2287,
      "Ġsuff": 2288,
      "Ġprovid": 2289,
      "orting": 2290,
      "Ġcha": 2291,
      "Ġchant": 2292,
      "ĠInstit": 2293,
      "Ġvir": 2294,
      "Ġincor": 2295,
      "abl": 2296,
      "ability": 2297,
      "thony": 2298,
      "Ġunknown": 2299,
      "ranch": 2300,
      "ĠAnthony": 2301,
      "Ġknown": 2302,
      "play": 2303,
      "Ġshot": 2304,
      "ucin": 2305,
      "Ġintellect": 2306,
      "Ġnecess": 2307,
      "Ġimpl": 2308,
      "Ġscenes": 2309,
      "Ġroute": 2310,
      "Ġfeud": 2311,
      "iley": 2312,
      "sequ": 2313,
      "Ġtelev": 2314,
      "ize": 2315,
      "ization": 2316,
      "Ġarts": 2317,
      "iple": 2318,
      "oyal": 2319,
      "Ġ2003": 2320,
      "Ġ2006": 2321,
      "ĠStud": 2322,
      "Ġparticular": 2323,
      "Ġdesign": 2324,
      "Ġattached": 2325,
      "rying": 2326,
      "ĠYusuf": 2327,
      "rays": 2328,
      "Ġperhaps": 2329,
      "Ġemb": 2330,
      "Ġadapt": 2331,
      "Ġclaim": 2332,
      "Ġpersu": 2333,
      "cadian": 2334,
      "duct": 2335,
      "Ġaccom": 2336,
      "Ġcommun": 2337,
      "Ġcommissioner": 2338,
      "Ġeng": 2339,
      "Ġgoing": 2340,
      "away": 2341,
      "Ġsaf": 2342,
      "Ġpresident": 2343,
      "ught": 2344,
      "ughter": 2345,
      "Ġwriter": 2346,
      "ĠBlu": 2347,
      "Ġrevealing": 2348,
      "Ġgenre": 2349,
      "ĠLeon": 2350,
      "Ġkills": 2351,
      "Ġindust": 2352,
      "Ġindivid": 2353,
      "Ġindepend": 2354,
      "Ġmovies": 2355,
      "Ġportrayed": 2356,
      "Ġ21": 2357,
      "Ġphilos": 2358,
      "Ġdiscuss": 2359,
      "Ġ1996": 2360,
      "Ġinfluen": 2361,
      "Ġreturns": 2362,
      "Ġdistance": 2363,
      "Ġsets": 2364,
      "Ġproduce": 2365,
      "Ġleading": 2366,
      "Ġ1955": 2367,
      "Ġpopulation": 2368,
      "Ġrepres": 2369,
      "Ġreported": 2370,
      "Ġhistor": 2371,
      "Ġtechnical": 2372,
      "Ġcamer": 2373,
      "Ġconfron": 2374,
      "Ġsuccessful": 2375,
      "Ġfigures": 2376,
      "Ġcaused": 2377,
      "Ġcauses": 2378,
      "Ġhighly": 2379,
      "Ġlevels": 2380,
      "Ġcontinue": 2381,
      "Ġcontinued": 2382,
      "mma": 2383,
      "Ġterm": 2384,
      "Ġthought": 2385,
      "Ġprotect": 2386,
      "Ġgenerally": 2387,
      "Ġtrue": 2388,
      "Ġhygi": 2389,
      "Ġminutes": 2390,
      "Ġrefus": 2391,
      "Ġnominated": 2392,
      "Ġamong": 2393,
      "Ġsignific": 2394,
      "Ġmusic": 2395,
      "ĠProject": 2396,
      "Ġcombat": 2397,
      "Ġfeelings": 2398,
      "Ġcaffe": 2399,
      "Ġbring": 2400,
      "ĠJoe": 2401,
      "Ġproduced": 2402,
      "Ġwomen": 2403,
      "Ġbuilt": 2404,
      "Ġnumber": 2405,
      "ĠWilliam": 2406,
      "Ġapproxim": 2407,
      "Ġestabl": 2408,
      "Ġfull": 2409,
      "Ġfootball": 2410,
      "Ġoffered": 2411,
      "Ġdeliv": 2412,
      "Ġmembers": 2413,
      "ĠWestley": 2414,
      "Ġexperi": 2415,
      "Ġrespectively": 2416,
      "Ġpursue": 2417,
      "nowled": 2418,
      "Ġcurrent": 2419,
      "Ġbiograph": 2420,
      "Ġdaughter": 2421,
      "imbo": 2422,
      "ĠSpecial": 2423,
      "Ġlaun": 2424,
      "Ġsequel": 2425,
      "Ġquestion": 2426,
      "Ġcircadian": 2427,
      "Ġhallucin": 2428,
      "rouble": 2429,
      "Ġreboot": 2430,
      "ĠDiCap": 2431,
      "Ġliterature": 2432,
      "Ġequipment": 2433,
      "Ġintroduc": 2434,
      "Ġrespons": 2435,
      "Ġemotional": 2436,
      "Levitt": 2437,
      "humous": 2438,
      "Ġtargets": 2439,
      "Ġtheoretical": 2440,
      "Ġmultiple": 2441,
      "ĠAvengers": 2442,
      "ĠDucard": 2443,
      "ĠPrinceton": 2444,
      "ĠNovember": 2445,
      "ĠHathaway": 2446,
      "ĠFebruary": 2447,
      "Ġalcohol": 2448,
      "ĠInstitute": 2449,
      "Ġnecessary": 2450,
      "Ġindividual": 2451,
      "Ġhygiene": 2452,
      "ĠDiCaprio": 2453,
      "\")": 2454,
      ".,": 2455,
      "92": 2456,
      "AS": 2457,
      "Al": 2458,
      "As": 2459,
      "BC": 2460,
      "BN": 2461,
      "CP": 2462,
      "EN": 2463,
      "Jos": 2464,
      "Michael": 2465,
      "Morgan": 2466,
      "Qu": 2467,
      "SBN": 2468,
      "TEN": 2469,
      "ah": 2470,
      "az": 2471,
      "cer": 2472,
      "con": 2473,
      "ched": 2474,
      "dom": 2475,
      "ef": 2476,
      "eor": 2477,
      "eet": 2478,
      "equ": 2479,
      "ford": 2480,
      "ges": 2481,
      "ha": 2482,
      "hod": 2483,
      "hatt": 2484,
      "iation": 2485,
      "kham": 2486,
      "lob": 2487,
      "me": 2488,
      "mber": 2489,
      "ned": 2490,
      "nthe": 2491,
      "ps": 2492,
      "pres": 2493,
      "post": 2494,
      "prin": 2495,
      "ril": 2496,
      "she": 2497,
      "sing": 2498,
      "sive": 2499,
      "ted": 2500,
      "til": 2501,
      "tely": 2502,
      "uman": 2503,
      "vis": 2504,
      "van": 2505,
      "ving": 2506,
      "vard": 2507,
      "vement": 2508,
      "view": 2509,
      "wom": 2510,
      "way": 2511,
      "wide": 2512,
      "yond": 2513,
      "Ã¨": 2514,
      "Ġ&": 2515,
      "Ġer": 2516,
      "Ġru": 2517,
      "Ġri": 2518,
      "Ġess": 2519,
      "Ġens": 2520,
      "Ġ70": 2521,
      "Ġ97": 2522,
      "Ġtar": 2523,
      "Ġtal": 2524,
      "Ġtitled": 2525,
      "Ġtrouble": 2526,
      "Ġac": 2527,
      "Ġacadem": 2528,
      "Ġawards": 2529,
      "Ġachie": 2530,
      "erv": 2531,
      "erated": 2532,
      "erque": 2533,
      "rel": 2534,
      "Ġthera": 2535,
      "Ġtheory": 2536,
      "atre": 2537,
      "atory": 2538,
      "enger": 2539,
      "Ġsw": 2540,
      "Ġsed": 2541,
      "Ġsle": 2542,
      "Ġsus": 2543,
      "Ġsep": 2544,
      "Ġsave": 2545,
      "Ġside": 2546,
      "Ġsong": 2547,
      "Ġsense": 2548,
      "ank": 2549,
      "orter": 2550,
      "ornia": 2551,
      "Ġfar": 2552,
      "Ġfusion": 2553,
      "Ġwin": 2554,
      "Ġwent": 2555,
      "Ġways": 2556,
      "ites": 2557,
      "itter": 2558,
      "itect": 2559,
      "itial": 2560,
      "Ġant": 2561,
      "Ġanal": 2562,
      "Ġour": 2563,
      "Ġopp": 2564,
      "Ġopen": 2565,
      "ara": 2566,
      "aron": 2567,
      "aris": 2568,
      "arle": 2569,
      "aration": 2570,
      "Ġcame": 2571,
      "Ġcap": 2572,
      "Ġcare": 2573,
      "Ġcross": 2574,
      "Ġcertain": 2575,
      "Ġcognitive": 2576,
      "Ġins": 2577,
      "Ġinception": 2578,
      "Ġbelf": 2579,
      "Ġbank": 2580,
      "Ġpr": 2581,
      "Ġpound": 2582,
      "Ġpoint": 2583,
      "Ġprimary": 2584,
      "Ġpoor": 2585,
      "lease": 2586,
      "alth": 2587,
      "icle": 2588,
      "icists": 2589,
      "Ġhor": 2590,
      "Ġhom": 2591,
      "Ġhig": 2592,
      "Ġham": 2593,
      "Ġhop": 2594,
      "Ġdon": 2595,
      "Ġdate": 2596,
      "Ġdying": 2597,
      "Ġtox": 2598,
      "ilip": 2599,
      "ilities": 2600,
      "Ġmar": 2601,
      "Ġmight": 2602,
      "Ġmass": 2603,
      "ĠBer": 2604,
      "ĠBel": 2605,
      "ĠBec": 2606,
      "ĠBBC": 2607,
      "ĠTate": 2608,
      "ĠTran": 2609,
      "ĠTime": 2610,
      "ĠToy": 2611,
      "iment": 2612,
      "ctob": 2613,
      "ention": 2614,
      "Ġrest": 2615,
      "Ġrepl": 2616,
      "elina": 2617,
      "oura": 2618,
      "olic": 2619,
      "ĠAcc": 2620,
      "cember": 2621,
      "ĠShe": 2622,
      "ĠSim": 2623,
      "ĠSain": 2624,
      "ĠSept": 2625,
      "ĠSelina": 2626,
      "ĠCent": 2627,
      "Ġthus": 2628,
      "Ġthrill": 2629,
      "ster": 2630,
      "Ġbeach": 2631,
      "Ġbeyond": 2632,
      "ĠDes": 2633,
      "ĠDover": 2634,
      "Ġled": 2635,
      "Ġlar": 2636,
      "Ġlim": 2637,
      "Ġline": 2638,
      "Ġlove": 2639,
      "Ġlayer": 2640,
      "Ġev": 2641,
      "Ġeven": 2642,
      "Ġearl": 2643,
      "Ġelement": 2644,
      "Ġnicot": 2645,
      "urch": 2646,
      "ĠPit": 2647,
      "ĠPol": 2648,
      "ĠProm": 2649,
      "ĠPict": 2650,
      "ĠPhys": 2651,
      "ush": 2652,
      "Ġfort": 2653,
      "Ġforces": 2654,
      "ĠThey": 2655,
      "Ġhead": 2656,
      "Ġhearing": 2657,
      "ĠGary": 2658,
      "ĠGold": 2659,
      "ĠGrand": 2660,
      "Ġiss": 2661,
      "pped": 2662,
      "ĠRup": 2663,
      "ĠMart": 2664,
      "ĠNich": 2665,
      "ulate": 2666,
      "ults": 2667,
      "ĠISBN": 2668,
      "Ġste": 2669,
      "Ġstart": 2670,
      "Ġstock": 2671,
      "Ġstrug": 2672,
      "ĠHon": 2673,
      "ĠHen": 2674,
      "ĠHall": 2675,
      "ĠHouse": 2676,
      "ĠWith": 2677,
      "ĠWars": 2678,
      "ĠJul": 2679,
      "ĠJap": 2680,
      "etween": 2681,
      "estyle": 2682,
      "embl": 2683,
      "empor": 2684,
      "ĠOut": 2685,
      "ĠOctob": 2686,
      "oses": 2687,
      "Ġconn": 2688,
      "Ġconce": 2689,
      "Ġconfer": 2690,
      "Ġconcept": 2691,
      "Ġ15": 2692,
      "Ġgave": 2693,
      "Ġgiving": 2694,
      "Ġalong": 2695,
      "Ġaltern": 2696,
      "Ġalthough": 2697,
      "avior": 2698,
      "201": 2699,
      "ordinary": 2700,
      "udge": 2701,
      "ĠLum": 2702,
      "ĠLib": 2703,
      "ĠLimbo": 2704,
      "ifornia": 2705,
      "Ġcomes": 2706,
      "Ġdeg": 2707,
      "Ġdeman": 2708,
      "Ġseen": 2709,
      "aced": 2710,
      "Ġwhole": 2711,
      "ĠEck": 2712,
      "ĠEmp": 2713,
      "ĠEmma": 2714,
      "ĠEarle": 2715,
      "Ġcho": 2716,
      "Ġchronic": 2717,
      "Ġchosen": 2718,
      "Ġleak": 2719,
      "Ġleaving": 2720,
      "Ġvoc": 2721,
      "Ġvide": 2722,
      "Ġveh": 2723,
      "Ġexam": 2724,
      "Ġexcess": 2725,
      "antasy": 2726,
      "ogen": 2727,
      "umacher": 2728,
      "hyth": 2729,
      "abor": 2730,
      "Ġkg": 2731,
      "Ġshoot": 2732,
      "mental": 2733,
      "ĠChin": 2734,
      "uced": 2735,
      "\".:": 2736,
      "Ġyour": 2737,
      "Ġappoint": 2738,
      "Ġresc": 2739,
      "Ġresign": 2740,
      "ĠHeath": 2741,
      "Ġneuro": 2742,
      "Ġscene": 2743,
      "Ġcontempor": 2744,
      "aneous": 2745,
      "Ġtraum": 2746,
      "Ġtravel": 2747,
      "Ġtrack": 2748,
      "Ġrad": 2749,
      "Ġrate": 2750,
      "Ġrates": 2751,
      "Ġrhyth": 2752,
      "Ġtele": 2753,
      "Ġteaser": 2754,
      "ĠDunkerque": 2755,
      "Ġacts": 2756,
      "Ġactually": 2757,
      "itional": 2758,
      "Ġsecre": 2759,
      "izing": 2760,
      "ĠUnion": 2761,
      "Ġserved": 2762,
      "Ġserves": 2763,
      "Ġservices": 2764,
      "ĠAll": 2765,
      "Ġupon": 2766,
      "Ġmanag": 2767,
      "Ġsoon": 2768,
      "Ġsocial": 2769,
      "idents": 2770,
      "ĠMany": 2771,
      "ĠManor": 2772,
      "ĠManhatt": 2773,
      "Ġemph": 2774,
      "Ġadd": 2775,
      "Ġadult": 2776,
      "Ġagre": 2777,
      "ventional": 2778,
      "Ġinform": 2779,
      "Ġinfilt": 2780,
      "Ġothers": 2781,
      "Ġaccount": 2782,
      "Ġphysical": 2783,
      "Ġimperson": 2784,
      "Ġenc": 2785,
      "Ġinterview": 2786,
      "ĠRao": 2787,
      "Ġstudy": 2788,
      "Ġdoes": 2789,
      "Ġdoctor": 2790,
      "Ġcoast": 2791,
      "ilding": 2792,
      "Ġjob": 2793,
      "Ġjoin": 2794,
      "Ġwrite": 2795,
      "ĠBlack": 2796,
      "Ġworldwide": 2797,
      "Ġplayed": 2798,
      "Ġplaying": 2799,
      "Ġunderworld": 2800,
      "Ġunderstand": 2801,
      "venge": 2802,
      "Ġdepartment": 2803,
      "ĠScreen": 2804,
      "Ġkilled": 2805,
      "Ġdreams": 2806,
      "Ġsubsequ": 2807,
      "Ġtruth": 2808,
      "ffects": 2809,
      "ĠArkham": 2810,
      "Ġconsum": 2811,
      "Ġexpressed": 2812,
      "Ġ1997": 2813,
      "Ġ1998": 2814,
      "195": 2815,
      "ittle": 2816,
      "Ġmetab": 2817,
      "Ġfamil": 2818,
      "Ġcorruption": 2819,
      "Ġinvest": 2820,
      "Ġrevolution": 2821,
      "Ġleads": 2822,
      "Ġ1954": 2823,
      "Ġ1957": 2824,
      "Ġtrailers": 2825,
      "Ġflat": 2826,
      "Ġassess": 2827,
      "Ġeventually": 2828,
      "Ġincrease": 2829,
      "Ġincreasing": 2830,
      "Ġtechnology": 2831,
      "ĠPrize": 2832,
      "ĠReese": 2833,
      "Ġconfid": 2834,
      "Ġextract": 2835,
      "Ġ1967": 2836,
      "Ġyounger": 2837,
      "Ġcrimes": 2838,
      "Ġspec": 2839,
      "Ġregular": 2840,
      "Ġhelped": 2841,
      "Ġfeaturing": 2842,
      "ailed": 2843,
      "ailable": 2844,
      "Ġterror": 2845,
      "attle": 2846,
      "Ġdiaries": 2847,
      "Ġmafia": 2848,
      "ĠSchmit": 2849,
      "ĠSchumacher": 2850,
      "ĠHolmes": 2851,
      "Ġprotest": 2852,
      "Ġscreening": 2853,
      "Ġweapon": 2854,
      "Ġcritic": 2855,
      "ĠAtt": 2856,
      "ĠCommun": 2857,
      "ardyck": 2858,
      "Ġorigin": 2859,
      "Ġscientific": 2860,
      "Ġpsychological": 2861,
      "Ġtelling": 2862,
      "Ġinspiration": 2863,
      "Ġreferred": 2864,
      "ĠHarvard": 2865,
      "Ġ2024": 2866,
      "Ġattempts": 2867,
      "Ġbelieved": 2868,
      "Ġpatients": 2869,
      "Ġhonest": 2870,
      "ĠDecember": 2871,
      "Ġeffects": 2872,
      "ĠOrig": 2873,
      "2005": 2874,
      "ognition": 2875,
      "Ġbecomes": 2876,
      "Ġwoman": 2877,
      "Ġreader": 2878,
      "change": 2879,
      "ĠMaurice": 2880,
      "Ġlecture": 2881,
      "Ġlectures": 2882,
      "Ġjustice": 2883,
      "Ġpromoted": 2884,
      "Ġillusion": 2885,
      "Ġbillionaire": 2886,
      "Ġruns": 2887,
      "Ġrecommended": 2888,
      "Ġblockbuster": 2889,
      "Ġblockbusters": 2890,
      "Ġsimilar": 2891,
      "Ġschool": 2892,
      "Ġcreating": 2893,
      "ĠService": 2894,
      "ĠCalifornia": 2895,
      "ĠComics": 2896,
      "Ġnarrative": 2897,
      "etheus": 2898,
      "Ġprologue": 2899,
      "Ġproblem": 2900,
      "Ġvillains": 2901,
      "Ġimages": 2902,
      "Ġpreparation": 2903,
      "Ġarchitect": 2904,
      "Ġstorytelling": 2905,
      "Ġinvolved": 2906,
      "Ġcontributions": 2907,
      "track": 2908,
      "Ġaffected": 2909,
      "Ġculture": 2910,
      "Ġclearance": 2911,
      "Ġprior": 2912,
      "ĠSmith": 2913,
      "ĠCollege": 2914,
      "Ġlifestyle": 2915,
      "ĠPhilip": 2916,
      "Ġheavily": 2917,
      "Ġchanges": 2918,
      "Ġattacks": 2919,
      "Ġimportance": 2920,
      "Ġassistant": 2921,
      "Synthe": 2922,
      "ergy": 2923,
      "itude": 2924,
      "Ġcivil": 2925,
      "Ġcredited": 2926,
      "Ġdocument": 2927,
      "Ġmaterial": 2928,
      "ĠBrowning": 2929,
      "Ġreactor": 2930,
      "ĠApril": 2931,
      "ĠCatwom": 2932,
      "Ġearned": 2933,
      "Ġhenchmen": 2934,
      "Ġchaos": 2935,
      "Ġintellectual": 2936,
      "Ġtelevision": 2937,
      "Ġadaptation": 2938,
      "Ġindependent": 2939,
      "Ġinfluenced": 2940,
      "Ġcaffeine": 2941,
      "Ġapproximately": 2942,
      "Ġexperience": 2943,
      "nowledge": 2944,
      "Ġlaunch": 2945,
      "Ġhallucinogen": 2946,
      "CPD": 2947,
      "TENET": 2948,
      "posthumous": 2949,
      "Ġ978": 2950,
      "Ġtarget": 2951,
      "Ġtherapy": 2952,
      "Ġsepar": 2953,
      "Ġcameo": 2954,
      "Ġpounds": 2955,
      "Ġhigher": 2956,
      "ĠBecause": 2957,
      "ĠTransp": 2958,
      "ĠSaint": 2959,
      "ĠSeptember": 2960,
      "Ġearlier": 2961,
      "Ġnicotine": 2962,
      "ĠPrometheus": 2963,
      "ĠPictures": 2964,
      "ĠRupert": 2965,
      "ĠNicholas": 2966,
      "Ġstruggl": 2967,
      "ĠJapan": 2968,
      "ĠOctober": 2969,
      "avioral": 2970,
      "ĠLumia": 2971,
      "ĠLibrary": 2972,
      "ĠEckhart": 2973,
      "ĠEmpire": 2974,
      "Ġvideo": 2975,
      "Ġrhythm": 2976,
      "Ġsocialite": 2977,
      "ĠManhattan": 2978,
      "Ġemphas": 2979,
      "Ġinformation": 2980,
      "Ġinfiltr": 2981,
      "Ġjoined": 2982,
      "ĠSchmitz": 2983,
      "ĠCatwoman": 2984,
      "11": 2985,
      "15": 2986,
      "16": 2987,
      "18": 2988,
      "37": 2989,
      "72": 2990,
      "?\"": 2991,
      "AF": 2992,
      "An": 2993,
      "Bat": 2994,
      "Con": 2995,
      "Cobb": 2996,
      "Cillian": 2997,
      "Gary": 2998,
      "Mar": 2999,
      "No": 3000,
      "Other": 3001,
      "St": 3002,
      "Sleep": 3003,
      "Two": 3004,
      "Un": 3005,
      "Use": 3006,
      "VD": 3007,
      "ai": 3008,
      "ax": 3009,
      "aut": 3010,
      "ailey": 3011,
      "bre": 3012,
      "bur": 3013,
      "bout": 3014,
      "book": 3015,
      "body": 3016,
      "budget": 3017,
      "clus": 3018,
      "do": 3019,
      "ey": 3020,
      "film": 3021,
      "file": 3022,
      "gely": 3023,
      "ground": 3024,
      "hib": 3025,
      "ient": 3026,
      "iol": 3027,
      "ius": 3028,
      "iet": 3029,
      "iqu": 3030,
      "iatr": 3031,
      "ique": 3032,
      "kins": 3033,
      "li": 3034,
      "ls": 3035,
      "liv": 3036,
      "light": 3037,
      "lum": 3038,
      "lies": 3039,
      "my": 3040,
      "more": 3041,
      "morb": 3042,
      "nal": 3043,
      "national": 3044,
      "napp": 3045,
      "ois": 3046,
      "oard": 3047,
      "pne": 3048,
      "pite": 3049,
      "posed": 3050,
      "ring": 3051,
      "rame": 3052,
      "rilogy": 3053,
      "son": 3054,
      "sur": 3055,
      "teen": 3056,
      "tled": 3057,
      "uis": 3058,
      "uage": 3059,
      "uate": 3060,
      "vers": 3061,
      "void": 3062,
      "win": 3063,
      "wing": 3064,
      "winning": 3065,
      "xt": 3066,
      "yo": 3067,
      "yan": 3068,
      "ysom": 3069,
      "ype": 3070,
      "yll": 3071,
      "zz": 3072,
      "Ã¤": 3073,
      "Ġge": 3074,
      "Ġir": 3075,
      "Ġver": 3076,
      "Ġended": 3077,
      "Ġ...": 3078,
      "ĠQu": 3079,
      "Ġtem": 3080,
      "Ġaro": 3081,
      "Ġair": 3082,
      "Ġapne": 3083,
      "ined": 3084,
      "inations": 3085,
      "erm": 3086,
      "erable": 3087,
      "erved": 3088,
      "onell": 3089,
      "rest": 3090,
      "reased": 3091,
      "rehen": 3092,
      "reets": 3093,
      "atin": 3094,
      "atives": 3095,
      "atography": 3096,
      "enant": 3097,
      "ency": 3098,
      "enha": 3099,
      "Ġsav": 3100,
      "Ġsection": 3101,
      "Ġspl": 3102,
      "Ġsend": 3103,
      "Ġsens": 3104,
      "Ġshel": 3105,
      "ann": 3106,
      "orary": 3107,
      "orial": 3108,
      "Ġfer": 3109,
      "Ġfur": 3110,
      "Ġfut": 3111,
      "Ġfav": 3112,
      "Ġfif": 3113,
      "Ġfac": 3114,
      "Ġfive": 3115,
      "Ġfinger": 3116,
      "Ġfool": 3117,
      "Ġfranch": 3118,
      "Ġwit": 3119,
      "Ġwid": 3120,
      "Ġwake": 3121,
      "Ġwaking": 3122,
      "Ġwatch": 3123,
      "itor": 3124,
      "Ġanim": 3125,
      "Ġanci": 3126,
      "Ġob": 3127,
      "arp": 3128,
      "Ġcut": 3129,
      "Ġcop": 3130,
      "Ġcore": 3131,
      "Ġcell": 3132,
      "Ġcost": 3133,
      "Ġcour": 3134,
      "Ġcited": 3135,
      "Ġcrow": 3136,
      "Ġcateg": 3137,
      "Ġinher": 3138,
      "Ġinvent": 3139,
      "Ġinside": 3140,
      "Ġinitial": 3141,
      "Ġbit": 3142,
      "Ġbri": 3143,
      "Ġboy": 3144,
      "Ġbene": 3145,
      "Ġbrain": 3146,
      "Ġbattle": 3147,
      "ingly": 3148,
      "Ġpay": 3149,
      "Ġpast": 3150,
      "Ġpress": 3151,
      "Ġpick": 3152,
      "Ġpills": 3153,
      "lex": 3154,
      "ica": 3155,
      "icy": 3156,
      "ication": 3157,
      "icated": 3158,
      "icine": 3159,
      "Ġhos": 3160,
      "Ġhand": 3161,
      "Ġhorm": 3162,
      "Ġhund": 3163,
      "Ġhands": 3164,
      "Ġhuman": 3165,
      "Ġdou": 3166,
      "Ġdam": 3167,
      "Ġdun": 3168,
      "Ġdra": 3169,
      "Ġdies": 3170,
      "Ġdie": 3171,
      "Ġdial": 3172,
      "Ġtop": 3173,
      "iled": 3174,
      "ille": 3175,
      "Ġmart": 3176,
      "Ġmission": 3177,
      "Ġmug": 3178,
      "ason": 3179,
      "ases": 3180,
      "aster": 3181,
      "assion": 3182,
      "ashing": 3183,
      "ĠBased": 3184,
      "ĠBerke": 3185,
      "ĠBethe": 3186,
      "ĠBetween": 3187,
      "ĠBAF": 3188,
      "ĠTe": 3189,
      "ĠTo": 3190,
      "ĠTim": 3191,
      "ĠTra": 3192,
      "ĠTum": 3193,
      "ĠTok": 3194,
      "ĠTrin": 3195,
      "ĠTrilogy": 3196,
      "rog": 3197,
      "roid": 3198,
      "Ġren": 3199,
      "Ġrequ": 3200,
      "Ġrepe": 3201,
      "Ġreject": 3202,
      "Ġast": 3203,
      "Ġasked": 3204,
      "olism": 3205,
      "ĠAsy": 3206,
      "ĠAbout": 3207,
      "ĠSur": 3208,
      "ĠSov": 3209,
      "ĠSqu": 3210,
      "ĠSign": 3211,
      "ĠSever": 3212,
      "ĠCo": 3213,
      "ĠCong": 3214,
      "ĠCald": 3215,
      "ĠComic": 3216,
      "ĠCinem": 3217,
      "ĠCarb": 3218,
      "ĠCIA": 3219,
      "igence": 3220,
      "ams": 3221,
      "ston": 3222,
      "sted": 3223,
      "stery": 3224,
      "ĠDu": 3225,
      "ĠDay": 3226,
      "ĠDep": 3227,
      "ĠDVD": 3228,
      "ota": 3229,
      "ote": 3230,
      "ott": 3231,
      "otype": 3232,
      "ayed": 3233,
      "Ġless": 3234,
      "Ġlog": 3235,
      "Ġlies": 3236,
      "Ġlang": 3237,
      "Ġloyal": 3238,
      "Ġlittle": 3239,
      "Ġeth": 3240,
      "Ġelect": 3241,
      "Ġnon": 3242,
      "ĠPet": 3243,
      "ĠPart": 3244,
      "ĠPress": 3245,
      "ĠPubl": 3246,
      "ĠPatr": 3247,
      "ĠParis": 3248,
      "use": 3249,
      "Ġforce": 3250,
      "Ġforced": 3251,
      "ivate": 3252,
      "ĠGer": 3253,
      "ĠGare": 3254,
      "ĠGarc": 3255,
      "ĠGlob": 3256,
      "ĠGCPD": 3257,
      "ĠGyll": 3258,
      "idnapp": 3259,
      "unct": 3260,
      "Ġonce": 3261,
      "tered": 3262,
      "aden": 3263,
      "aditional": 3264,
      "mander": 3265,
      "uts": 3266,
      "utenant": 3267,
      "ĠRog": 3268,
      "ĠRec": 3269,
      "ĠRyan": 3270,
      "ĠMat": 3271,
      "ĠMir": 3272,
      "ĠMort": 3273,
      "ĠMatt": 3274,
      "ĠMorgan": 3275,
      "ĠNorth": 3276,
      "ĠNational": 3277,
      "ĠNAS": 3278,
      "ull": 3279,
      "ulsive": 3280,
      "ĠII": 3281,
      "ĠImp": 3282,
      "Ġstun": 3283,
      "Ġstri": 3284,
      "Ġstate": 3285,
      "Ġstaying": 3286,
      "Ġstreets": 3287,
      "ĠHer": 3288,
      "ĠHigh": 3289,
      "ĠHong": 3290,
      "ĠHans": 3291,
      "ephen": 3292,
      "ĠWar": 3293,
      "ĠWil": 3294,
      "ĠWashing": 3295,
      "istent": 3296,
      "ĠJack": 3297,
      "ĠJudge": 3298,
      "ete": 3299,
      "eth": 3300,
      "ectures": 3301,
      "emed": 3302,
      "emble": 3303,
      "ĠFrom": 3304,
      "ĠFantasy": 3305,
      "ĠObs": 3306,
      "ĠOliv": 3307,
      "rumental": 3308,
      "ĠBatc": 3309,
      "ophy": 3310,
      "opause": 3311,
      "osure": 3312,
      "iable": 3313,
      "raw": 3314,
      "raordinary": 3315,
      "Ġconduct": 3316,
      "Ġ17": 3317,
      "Ġgra": 3318,
      "Ġgri": 3319,
      "Ġgod": 3320,
      "Ġgame": 3321,
      "Ġgross": 3322,
      "Ġalive": 3323,
      "rome": 3324,
      "ĠKong": 3325,
      "ĠKitt": 3326,
      "ĠKenn": 3327,
      "ĠLo": 3328,
      "ĠLiam": 3329,
      "ĠLectures": 3330,
      "ify": 3331,
      "Ġcompl": 3332,
      "Ġcomics": 3333,
      "Ġdeb": 3334,
      "Ġdeal": 3335,
      "Ġdead": 3336,
      "Ġdecad": 3337,
      "Ġdevices": 3338,
      "Ġdeemed": 3339,
      "Ġsumm": 3340,
      "Ġ2020": 3341,
      "Ġsearch": 3342,
      "Ġselected": 3343,
      "Ġpropert": 3344,
      "cipl": 3345,
      "aces": 3346,
      "ĠEarly": 3347,
      "ĠEffects": 3348,
      "Ġchall": 3349,
      "Ġchose": 3350,
      "ppened": 3351,
      "Ġvis": 3352,
      "Ġval": 3353,
      "Ġvice": 3354,
      "Ġvision": 3355,
      "Ġvisual": 3356,
      "Ġvarious": 3357,
      "Ġexact": 3358,
      "Ġ1970": 3359,
      "antum": 3360,
      "ounter": 3361,
      "ume": 3362,
      "othing": 3363,
      "Ġsleepiness": 3364,
      "Ġorph": 3365,
      "Ġunable": 3366,
      "Ġuniversity": 3367,
      "Ġunless": 3368,
      "Ġuntil": 3369,
      "Ġdiss": 3370,
      "Ġdisapp": 3371,
      "Ġdiscipl": 3372,
      "ellow": 3373,
      "ago": 3374,
      "agon": 3375,
      "aged": 3376,
      "agues": 3377,
      "tsbur": 3378,
      "ief": 3379,
      "ieutenant": 3380,
      "Ġkidnapp": 3381,
      "Ġshown": 3382,
      "Ġshock": 3383,
      "ĠUs": 3384,
      "ĠCharl": 3385,
      "actions": 3386,
      "Ġintends": 3387,
      "Ġusually": 3388,
      "dering": 3389,
      "Ġabs": 3390,
      "Ġable": 3391,
      "Ġabove": 3392,
      "ĠGothic": 3393,
      "athing": 3394,
      "Ġresembl": 3395,
      "Ġ2018": 3396,
      "Ġimm": 3397,
      "inee": 3398,
      "ultaneous": 3399,
      "Ġscale": 3400,
      "Ġsched": 3401,
      "Ġscope": 3402,
      "Ġcontrad": 3403,
      "Ġfeared": 3404,
      "Ġrig": 3405,
      "Ġrul": 3406,
      "anda": 3407,
      "Ġpolysom": 3408,
      "Ġacting": 3409,
      "itioned": 3410,
      "Ġprestige": 3411,
      "Ġarg": 3412,
      "Ġarms": 3413,
      "Ġarrest": 3414,
      "ips": 3415,
      "Ġ2002": 3416,
      "Ġ2007": 3417,
      "Ġworks": 3418,
      "Ġweight": 3419,
      "bler": 3420,
      "ĠSte": 3421,
      "ĠStar": 3422,
      "ĠStry": 3423,
      "ĠStephen": 3424,
      "Ġserious": 3425,
      "ĠAlthough": 3426,
      "Ġnoted": 3427,
      "berg": 3428,
      "Ġoverall": 3429,
      "Ġparts": 3430,
      "Ġdesired": 3431,
      "Ġdespite": 3432,
      "hysical": 3433,
      "Ġmanip": 3434,
      "ĠYear": 3435,
      "ensively": 3436,
      "Ġsociety": 3437,
      "Ġherself": 3438,
      "Ġadm": 3439,
      "Ġaged": 3440,
      "Ġclar": 3441,
      "Ġclos": 3442,
      "Ġclaw": 3443,
      "Ġclimate": 3444,
      "vention": 3445,
      "Ġaccess": 3446,
      "Ġaccla": 3447,
      "Ġaccording": 3448,
      "Ġimposing": 3449,
      "rint": 3450,
      "Ġenergy": 3451,
      "Ġstudent": 3452,
      "Ġstudied": 3453,
      "Ġgoes": 3454,
      "Ġdoing": 3455,
      "ought": 3456,
      "Ġcool": 3457,
      "Ġprescription": 3458,
      "Ġsynd": 3459,
      "Ġwriting": 3460,
      "Ġspok": 3461,
      "Ġrecru": 3462,
      "Ġrecognition": 3463,
      "Ġunderground": 3464,
      "Ġdepict": 3465,
      "ologist": 3466,
      "ĠScott": 3467,
      "Ġpositive": 3468,
      "Ġdreamers": 3469,
      "Ġmeet": 3470,
      "Ġmechan": 3471,
      "Ġtraditional": 3472,
      "Ġmovement": 3473,
      "Ġportrays": 3474,
      "Ġ22": 3475,
      "Ġ24": 3476,
      "Ġdiscovers": 3477,
      "Ġdescribing": 3478,
      "Ġinstit": 3479,
      "Ġinstrumental": 3480,
      "Ġexposure": 3481,
      "196": 3482,
      "Ġquality": 3483,
      "Ġquantum": 3484,
      "itted": 3485,
      "Ġcreate": 3486,
      "Ġdisturb": 3487,
      "Ġmedical": 3488,
      "Ġmedicine": 3489,
      "Ġmetre": 3490,
      "Ġmetap": 3491,
      "Ġmethod": 3492,
      "Ġrealistic": 3493,
      "ĠFilmm": 3494,
      "ĠAmerica": 3495,
      "ĠVisual": 3496,
      "Ġinvited": 3497,
      "Ġbrought": 3498,
      "Ġreceive": 3499,
      "Ġrail": 3500,
      "Ġrace": 3501,
      "Ġraised": 3502,
      "ennial": 3503,
      "Ġdestruction": 3504,
      "Ġremains": 3505,
      "Ġdeveloped": 3506,
      "Ġdevelopment": 3507,
      "Ġaudio": 3508,
      "Ġaudiences": 3509,
      "pects": 3510,
      "ators": 3511,
      "Ġextraordinary": 3512,
      "Ġextensively": 3513,
      "Ġtwins": 3514,
      "Ġtweet": 3515,
      "Ġanyone": 3516,
      "Ġcentral": 3517,
      "Ġcausing": 3518,
      "Ġprisoner": 3519,
      "Ġregret": 3520,
      "Ġlonger": 3521,
      "ossible": 3522,
      "Ġfeatured": 3523,
      "Ġeduc": 3524,
      "inkerke": 3525,
      "Ġsurv": 3526,
      "Ġbehavioral": 3527,
      "Ġscreenplay": 3528,
      "Ġgenerations": 3529,
      "Ġentire": 3530,
      "Ġentertain": 3531,
      "Ġtruck": 3532,
      "Ġtrusted": 3533,
      "Ġsmart": 3534,
      "Ġpurch": 3535,
      "Ġmini": 3536,
      "Ġmaintain": 3537,
      "ĠAdams": 3538,
      "ĠCommon": 3539,
      "ĠCommissioner": 3540,
      "Ġnominee": 3541,
      "Ġgreatest": 3542,
      "Ġsupply": 3543,
      "Ġsupplies": 3544,
      "Ġunclear": 3545,
      "plicated": 3546,
      "Ġneeds": 3547,
      "Ġneeded": 3548,
      "Ġcompletely": 3549,
      "Ġpreviously": 3550,
      "Ġprofessor": 3551,
      "Ġpsychiatr": 3552,
      "Ġamb": 3553,
      "Ġsigned": 3554,
      "Ġdeton": 3555,
      "Ġdetect": 3556,
      "Ġdetached": 3557,
      "Ġmusical": 3558,
      "Ġlisted": 3559,
      "Ġcombination": 3560,
      "Ġ2022": 3561,
      "Ġ2023": 3562,
      "Ġexplained": 3563,
      "Ġcontrolling": 3564,
      "Ġfeels": 3565,
      "Ġinteresting": 3566,
      "Ġdestroys": 3567,
      "plete": 3568,
      "Ġcapt": 3569,
      "Ġcollege": 3570,
      "Ġcollection": 3571,
      "Ġcolleagues": 3572,
      "Ġbelieves": 3573,
      "Ġheroic": 3574,
      "ĠJoel": 3575,
      "ĠOrder": 3576,
      "Ġproducer": 3577,
      "Ġ1980": 3578,
      "Ġappeal": 3579,
      "Ġtrained": 3580,
      "Ġtraining": 3581,
      "which": 3582,
      "Ġelim": 3583,
      "Ġturned": 3584,
      "Ġsoundtrack": 3585,
      "Ġcarried": 3586,
      "Ġoffers": 3587,
      "Ġdarker": 3588,
      "Ġmoral": 3589,
      "Ġmorning": 3590,
      "Ġmorality": 3591,
      "ĠSpace": 3592,
      "Ġnumbers": 3593,
      "ĠJosh": 3594,
      "Ġconclud": 3595,
      "Ġsecretly": 3596,
      "ĠEngland": 3597,
      "Ġemploye": 3598,
      "Ġcommonly": 3599,
      "Ġconsiderable": 3600,
      "Ġburglar": 3601,
      "gedy": 3602,
      "nchron": 3603,
      "produc": 3604,
      "profile": 3605,
      "Ġestate": 3606,
      "Ġavoid": 3607,
      "Ġavailable": 3608,
      "Ġfootage": 3609,
      "ingeroth": 3610,
      "Ġmasterm": 3611,
      "Ġlowest": 3612,
      "Ġlasting": 3613,
      "Ġseems": 3614,
      "Ġlearns": 3615,
      "Ġlearning": 3616,
      "Ġexperiment": 3617,
      "Ġweeks": 3618,
      "Ġrecommend": 3619,
      "Ġgetting": 3620,
      "Ġsimultaneous": 3621,
      "Ġfactors": 3622,
      "Ġburning": 3623,
      "Ġdiagnosis": 3624,
      "Ġmystery": 3625,
      "ĠSociety": 3626,
      "ĠCalais": 3627,
      "Ġlocations": 3628,
      "Ġefforts": 3629,
      "Ġstrateg": 3630,
      "ophical": 3631,
      "ĠKingdom": 3632,
      "Ġproblems": 3633,
      "Ġvoice": 3634,
      "Ġvoices": 3635,
      "Ġversion": 3636,
      "Ġvillain": 3637,
      "Ġorganiz": 3638,
      "Ġorganized": 3639,
      "Ġactivity": 3640,
      "Ġactivities": 3641,
      "Ġstoryteller": 3642,
      "Ġpossible": 3643,
      "Ġdiscovered": 3644,
      "1980": 3645,
      "1989": 3646,
      "Ġpremiered": 3647,
      "Ġcontributing": 3648,
      "generated": 3649,
      "Ġrise": 3650,
      "Ġrisk": 3651,
      "Ġtasked": 3652,
      "Ġobsess": 3653,
      "Ġcinema": 3654,
      "Ġbreak": 3655,
      "Ġbreathing": 3656,
      "Ġbedtime": 3657,
      "Ġpractical": 3658,
      "Ġhappened": 3659,
      "Ġdriven": 3660,
      "Ġmarketing": 3661,
      "enthal": 3662,
      "Ġbeginning": 3663,
      "ĠFlash": 3664,
      "Ġshift": 3665,
      "Ġreviews": 3666,
      "Ġregarding": 3667,
      "Ġbusinessman": 3668,
      "Ġtypically": 3669,
      "century": 3670,
      "office": 3671,
      "Ġfatal": 3672,
      "Ġfighting": 3673,
      "Ġcoll": 3674,
      "Ġinjury": 3675,
      "Ġbosses": 3676,
      "Ġdramatic": 3677,
      "Ġmathem": 3678,
      "Ġmotion": 3679,
      "Ġmiddle": 3680,
      "Ġmixed": 3681,
      "Ġelevated": 3682,
      "ĠReporter": 3683,
      "ĠRussian": 3684,
      "ĠMusic": 3685,
      "Ġstructure": 3686,
      "Ġprovides": 3687,
      "Ġviral": 3688,
      "Ġincorpor": 3689,
      "ĠStudies": 3690,
      "Ġparticularly": 3691,
      "Ġclaims": 3692,
      "Ġpersuades": 3693,
      "Ġaccompl": 3694,
      "ĠLeonid": 3695,
      "Ġcameras": 3696,
      "Ġsignificant": 3697,
      "Ġfootballer": 3698,
      "Ġdeliver": 3699,
      "Ġbiographies": 3700,
      "Ġintroduced": 3701,
      "eorge": 3702,
      "prints": 3703,
      "Ġaccept": 3704,
      "Ġslept": 3705,
      "Ġhorror": 3706,
      "Ġhammer": 3707,
      "Ġtoxin": 3708,
      "ĠBerenger": 3709,
      "ĠAccording": 3710,
      "ĠSimon": 3711,
      "Ġthriller": 3712,
      "Ġlargely": 3713,
      "Ġelements": 3714,
      "ĠPittsbur": 3715,
      "ĠPhysicists": 3716,
      "ĠGolden": 3717,
      "Ġissues": 3718,
      "ĠMartin": 3719,
      "ĠOutlaw": 3720,
      "Ġconnect": 3721,
      "Ġconceal": 3722,
      "Ġconcepts": 3723,
      "Ġalongside": 3724,
      "2012": 3725,
      "Ġdegree": 3726,
      "Ġchoice": 3727,
      "Ġleaked": 3728,
      "Ġvehicle": 3729,
      "Ġshooting": 3730,
      "ĠChinese": 3731,
      "Ġappointed": 3732,
      "Ġrescues": 3733,
      "Ġcontemporary": 3734,
      "Ġtraumatic": 3735,
      "Ġteleport": 3736,
      "Ġsecrets": 3737,
      "Ġencoura": 3738,
      "Ġfamilies": 3739,
      "Ġinvestig": 3740,
      "Ġincreasingly": 3741,
      "Ġconfidant": 3742,
      "ĠOriginal": 3743,
      "Ġarchitecture": 3744,
      "ĠTransported": 3745,
      "Ġstruggles": 3746,
      "morbid": 3747,
      "uisine": 3748,
      "Ġirrit": 3749,
      "Ġarous": 3750,
      "Ġapnea": 3751,
      "enhaal": 3752,
      "Ġfurther": 3753,
      "Ġfuture": 3754,
      "Ġfingerprints": 3755,
      "Ġwitness": 3756,
      "Ġancient": 3757,
      "Ġbrief": 3758,
      "Ġhosp": 3759,
      "Ġhundred": 3760,
      "Ġdialogue": 3761,
      "Ġmartial": 3762,
      "ĠBerkeley": 3763,
      "ĠBAFT": 3764,
      "ĠTumbler": 3765,
      "ĠTokyo": 3766,
      "ĠTrinity": 3767,
      "ĠAsylum": 3768,
      "ĠSquare": 3769,
      "ĠCongress": 3770,
      "ĠCaldlow": 3771,
      "ĠCinematography": 3772,
      "ĠCarbonell": 3773,
      "ĠDepartment": 3774,
      "Ġlanguage": 3775,
      "Ġethics": 3776,
      "ĠPetite": 3777,
      "ĠGarcia": 3778,
      "ĠGyllenhaal": 3779,
      "ĠRogues": 3780,
      "ĠMiranda": 3781,
      "ĠWashington": 3782,
      "ĠOlivia": 3783,
      "Ġgodfather": 3784,
      "Ġgrossed": 3785,
      "ĠKitty": 3786,
      "Ġsummers": 3787,
      "Ġproperty": 3788,
      "Ġchallen": 3789,
      "Ġorphan": 3790,
      "Ġkidnapped": 3791,
      "ĠCharles": 3792,
      "Ġpolysomn": 3793,
      "ĠStryver": 3794,
      "Ġacclaim": 3795,
      "Ġsyndrome": 3796,
      "Ġpsychiatric": 3797,
      "Ġmastermind": 3798,
      "Ġsimultaneously": 3799,
      "ĠPittsburgh": 3800,
      "\"âĢĶ": 3801,
      ",:": 3802,
      ".:": 3803,
      "04": 3804,
      "14": 3805,
      "100": 3806,
      "23": 3807,
      "27": 3808,
      "38": 3809,
      "43": 3810,
      "45": 3811,
      "50": 3812,
      "60": 3813,
      "77": 3814,
      "81": 3815,
      "85": 3816,
      "90": 3817,
      "Ad": 3818,
      "Ar": 3819,
      "After": 3820,
      "Aaron": 3821,
      "Avoid": 3822,
      "Bl": 3823,
      "Best": 3824,
      "Bill": 3825,
      "Bruce": 3826,
      "Bains": 3827,
      "CIA": 3828,
      "DH": 3829,
      "DS": 3830,
      "Dan": 3831,
      "Dunk": 3832,
      "Face": 3833,
      "Farl": 3834,
      "FDS": 3835,
      "George": 3836,
      "It": 3837,
      "Just": 3838,
      "John": 3839,
      "Ken": 3840,
      "Liam": 3841,
      "Mer": 3842,
      "Med": 3843,
      "Mardyck": 3844,
      "Non": 3845,
      "PA": 3846,
      "Pol": 3847,
      "Rob": 3848,
      "Since": 3849,
      "Tenet": 3850,
      "This": 3851,
      "Wayne": 3852,
      "Warner": 3853,
      "You": 3854,
      "af": 3855,
      "aÃ": 3856,
      "aul": 3857,
      "ares": 3858,
      "ahy": 3859,
      "bol": 3860,
      "bert": 3861,
      "based": 3862,
      "band": 3863,
      "burn": 3864,
      "bury": 3865,
      "bek": 3866,
      "co": 3867,
      "can": 3868,
      "cel": 3869,
      "cam": 3870,
      "care": 3871,
      "comm": 3872,
      "creased": 3873,
      "ding": 3874,
      "day": 3875,
      "dia": 3876,
      "direct": 3877,
      "down": 3878,
      "days": 3879,
      "diagn": 3880,
      "draw": 3881,
      "ein": 3882,
      "eed": 3883,
      "eing": 3884,
      "eum": 3885,
      "ease": 3886,
      "fig": 3887,
      "fus": 3888,
      "fort": 3889,
      "form": 3890,
      "friend": 3891,
      "fying": 3892,
      "gu": 3893,
      "gin": 3894,
      "gic": 3895,
      "gie": 3896,
      "gian": 3897,
      "gier": 3898,
      "gress": 3899,
      "gram": 3900,
      "ht": 3901,
      "him": 3902,
      "host": 3903,
      "house": 3904,
      "ien": 3905,
      "ias": 3906,
      "iot": 3907,
      "iem": 3908,
      "ios": 3909,
      "ires": 3910,
      "iated": 3911,
      "iant": 3912,
      "iros": 3913,
      "iately": 3914,
      "iography": 3915,
      "iological": 3916,
      "ja": 3917,
      "joy": 3918,
      "jean": 3919,
      "ky": 3920,
      "king": 3921,
      "kill": 3922,
      "kick": 3923,
      "kÃ¶": 3924,
      "lar": 3925,
      "lif": 3926,
      "late": 3927,
      "lare": 3928,
      "lists": 3929,
      "lusion": 3930,
      "lands": 3931,
      "lfriend": 3932,
      "ma": 3933,
      "mis": 3934,
      "mail": 3935,
      "mored": 3936,
      "ns": 3937,
      "nen": 3938,
      "nce": 3939,
      "net": 3940,
      "oo": 3941,
      "oel": 3942,
      "ores": 3943,
      "pre": 3944,
      "pid": 3945,
      "page": 3946,
      "pore": 3947,
      "part": 3948,
      "pire": 3949,
      "pany": 3950,
      "point": 3951,
      "pensive": 3952,
      "rd": 3953,
      "ration": 3954,
      "rons": 3955,
      "rase": 3956,
      "rative": 3957,
      "ridge": 3958,
      "su": 3959,
      "ses": 3960,
      "sel": 3961,
      "sup": 3962,
      "smit": 3963,
      "slands": 3964,
      "tin": 3965,
      "tre": 3966,
      "tle": 3967,
      "tal": 3968,
      "tter": 3969,
      "thy": 3970,
      "tran": 3971,
      "turn": 3972,
      "tings": 3973,
      "ua": 3974,
      "ub": 3975,
      "uing": 3976,
      "upp": 3977,
      "vin": 3978,
      "vas": 3979,
      "vise": 3980,
      "wers": 3981,
      "wart": 3982,
      "well": 3983,
      "witter": 3984,
      "xis": 3985,
      "yl": 3986,
      "yr": 3987,
      "yz": 3988,
      "year": 3989,
      "yth": 3990,
      "yrin": 3991,
      "zenthal": 3992,
      "zbek": 3993,
      "§ois": 3994,
      "«l": 3995,
      "Â°": 3996,
      "Ã¡": 3997,
      "Ãī": 3998,
      "Ã§ois": 3999,
      "ÉĻ": 4000,
      "Ġi": 4001,
      "ĠÅ": 4002,
      "Ġrom": 4003,
      "Ġice": 4004,
      "Ġran": 4005,
      "Ġult": 4006,
      "Ġrises": 4007,
      "Ġrange": 4008,
      "ĠÂ°": 4009,
      "Ġtitle": 4010,
      "Ġtack": 4011,
      "Ġtale": 4012,
      "Ġtens": 4013,
      "Ġtick": 4014,
      "Ġtaking": 4015,
      "Ġtrying": 4016,
      "Ġaut": 4017,
      "Ġaward": 4018,
      "Ġack": 4019,
      "Ġaute": 4020,
      "Ġaided": 4021,
      "Ġauth": 4022,
      "Ġavenge": 4023,
      "Ġaxis": 4024,
      "het": 4025,
      "heck": 4026,
      "hears": 4027,
      "inn": 4028,
      "int": 4029,
      "ining": 4030,
      "inst": 4031,
      "inate": 4032,
      "inisc": 4033,
      "ering": 4034,
      "eral": 4035,
      "erion": 4036,
      "erem": 4037,
      "eration": 4038,
      "erate": 4039,
      "erts": 4040,
      "erous": 4041,
      "erve": 4042,
      "erick": 4043,
      "onventional": 4044,
      "ref": 4045,
      "rey": 4046,
      "real": 4047,
      "reet": 4048,
      "repres": 4049,
      "revention": 4050,
      "Ġtheat": 4051,
      "ata": 4052,
      "atis": 4053,
      "atus": 4054,
      "atie": 4055,
      "atures": 4056,
      "atically": 4057,
      "ened": 4058,
      "enator": 4059,
      "encing": 4060,
      "engers": 4061,
      "encer": 4062,
      "isl": 4063,
      "isol": 4064,
      "isher": 4065,
      "ishes": 4066,
      "Ġsen": 4067,
      "Ġsal": 4068,
      "Ġsour": 4069,
      "Ġsale": 4070,
      "Ġslow": 4071,
      "Ġsite": 4072,
      "Ġsaving": 4073,
      "Ġsold": 4074,
      "Ġsaves": 4075,
      "Ġsorts": 4076,
      "Ġsought": 4077,
      "Ġsatis": 4078,
      "anic": 4079,
      "anies": 4080,
      "ancial": 4081,
      "anger": 4082,
      "orf": 4083,
      "orne": 4084,
      "Ġfan": 4085,
      "Ġfem": 4086,
      "Ġfru": 4087,
      "Ġfict": 4088,
      "Ġfake": 4089,
      "Ġfron": 4090,
      "Ġface": 4091,
      "Ġfix": 4092,
      "Ġfund": 4093,
      "Ġfled": 4094,
      "Ġfail": 4095,
      "Ġfans": 4096,
      "Ġfiel": 4097,
      "Ġframe": 4098,
      "Ġfellow": 4099,
      "edy": 4100,
      "Ġwear": 4101,
      "Ġwave": 4102,
      "Ġwears": 4103,
      "Ġwound": 4104,
      "Ġwarm": 4105,
      "itar": 4106,
      "ither": 4107,
      "itation": 4108,
      "itiz": 4109,
      "Ġann": 4110,
      "Ġanarch": 4111,
      "esh": 4112,
      "estern": 4113,
      "Ġost": 4114,
      "arred": 4115,
      "arant": 4116,
      "arous": 4117,
      "arings": 4118,
      "ariety": 4119,
      "Ġcy": 4120,
      "Ġcou": 4121,
      "Ġcra": 4122,
      "Ġcort": 4123,
      "Ġcard": 4124,
      "Ġcust": 4125,
      "Ġcase": 4126,
      "Ġcues": 4127,
      "Ġcities": 4128,
      "Ġcalc": 4129,
      "Ġcases": 4130,
      "Ġcounter": 4131,
      "Ġcuisine": 4132,
      "Ġcheck": 4133,
      "Ġcitiz": 4134,
      "Ġinn": 4135,
      "Ġinex": 4136,
      "Ġinability": 4137,
      "Ġbat": 4138,
      "Ġbol": 4139,
      "Ġbad": 4140,
      "Ġbir": 4141,
      "Ġball": 4142,
      "Ġblud": 4143,
      "Ġbond": 4144,
      "Ġblow": 4145,
      "Ġborn": 4146,
      "Ġbats": 4147,
      "Ġbudget": 4148,
      "Ġboard": 4149,
      "Ġple": 4150,
      "Ġpul": 4151,
      "Ġpet": 4152,
      "Ġpra": 4153,
      "Ġpred": 4154,
      "Ġpie": 4155,
      "Ġpack": 4156,
      "Ġpose": 4157,
      "Ġpassion": 4158,
      "leb": 4159,
      "leeson": 4160,
      "ales": 4161,
      "alle": 4162,
      "alent": 4163,
      "alified": 4164,
      "althy": 4165,
      "ico": 4166,
      "icer": 4167,
      "iced": 4168,
      "icate": 4169,
      "icts": 4170,
      "icide": 4171,
      "icip": 4172,
      "icolas": 4173,
      "icient": 4174,
      "icago": 4175,
      "Ġhol": 4176,
      "Ġhot": 4177,
      "Ġhum": 4178,
      "Ġhab": 4179,
      "Ġhoc": 4180,
      "Ġhost": 4181,
      "Ġhired": 4182,
      "Ġhope": 4183,
      "Ġharb": 4184,
      "Ġdig": 4185,
      "Ġdur": 4186,
      "Ġdem": 4187,
      "Ġdement": 4188,
      "Ġdrin": 4189,
      "Ġdrew": 4190,
      "Ġdanger": 4191,
      "Ġtool": 4192,
      "Ġtold": 4193,
      "Ġtoward": 4194,
      "Ġtown": 4195,
      "Ġtowards": 4196,
      "Ġtoys": 4197,
      "Ġtotal": 4198,
      "iling": 4199,
      "illy": 4200,
      "ionally": 4201,
      "Ġmer": 4202,
      "Ġmom": 4203,
      "Ġmap": 4204,
      "Ġmour": 4205,
      "Ġmisc": 4206,
      "Ġmakes": 4207,
      "Ġmatch": 4208,
      "omplete": 4209,
      "asak": 4210,
      "asts": 4211,
      "associ": 4212,
      "ashes": 4213,
      "ĠBo": 4214,
      "ĠBar": 4215,
      "ĠBal": 4216,
      "ĠBro": 4217,
      "ĠBur": 4218,
      "ĠBill": 4219,
      "ĠBud": 4220,
      "ĠBoth": 4221,
      "ĠBart": 4222,
      "ĠBert": 4223,
      "ĠBorn": 4224,
      "ĠBird": 4225,
      "ĠBrad": 4226,
      "ĠBailey": 4227,
      "ĠTV": 4228,
      "ĠTour": 4229,
      "ĠTait": 4230,
      "ĠTimes": 4231,
      "ĠToni": 4232,
      "ĠTwitter": 4233,
      "ĠTarant": 4234,
      "room": 4235,
      "rovers": 4236,
      "ims": 4237,
      "imal": 4238,
      "imul": 4239,
      "imented": 4240,
      "imony": 4241,
      "cts": 4242,
      "ctors": 4243,
      "Ġred": 4244,
      "Ġrevel": 4245,
      "Ġreception": 4246,
      "Ġrevenge": 4247,
      "Ġrehears": 4248,
      "eling": 4249,
      "outh": 4250,
      "ouds": 4251,
      "olve": 4252,
      "olades": 4253,
      "ĠApp": 4254,
      "ĠAut": 4255,
      "ĠAug": 4256,
      "ĠAaron": 4257,
      "ĠAlex": 4258,
      "ĠADH": 4259,
      "ceed": 4260,
      "ceiving": 4261,
      "ĠSG": 4262,
      "ĠSe": 4263,
      "ĠSw": 4264,
      "ĠSy": 4265,
      "ĠSir": 4266,
      "ĠSher": 4267,
      "ĠSenator": 4268,
      "ĠSouth": 4269,
      "ĠChe": 4270,
      "ĠCon": 4271,
      "ĠCath": 4272,
      "ĠCons": 4273,
      "ĠCase": 4274,
      "ĠCrises": 4275,
      "ĠCarm": 4276,
      "ĠCognitive": 4277,
      "ĠCole": 4278,
      "ĠCamb": 4279,
      "ĠCull": 4280,
      "Ġthous": 4281,
      "Ġthrow": 4282,
      "Ġthings": 4283,
      "Ġthief": 4284,
      "igue": 4285,
      "amos": 4286,
      "amber": 4287,
      "amines": 4288,
      "stream": 4289,
      "ĠDo": 4290,
      "ĠDel": 4291,
      "ĠDut": 4292,
      "ĠDist": 4293,
      "ĠDec": 4294,
      "ĠDiagn": 4295,
      "ĠDFDS": 4296,
      "otus": 4297,
      "Ġlot": 4298,
      "Ġluc": 4299,
      "Ġlived": 4300,
      "Ġlik": 4301,
      "Ġlosing": 4302,
      "Ġlieutenant": 4303,
      "Ġlasts": 4304,
      "Ġemer": 4305,
      "Ġevid": 4306,
      "Ġeasy": 4307,
      "Ġeither": 4308,
      "Ġnin": 4309,
      "Ġnav": 4310,
      "Ġnorm": 4311,
      "Ġnational": 4312,
      "Ġnetwork": 4313,
      "Ġnuts": 4314,
      "urg": 4315,
      "urk": 4316,
      "urately": 4317,
      "ĠPe": 4318,
      "ĠPen": 4319,
      "ĠPan": 4320,
      "ĠPot": 4321,
      "ĠPres": 4322,
      "ĠPark": 4323,
      "ĠPost": 4324,
      "ĠPeople": 4325,
      "ĠPicture": 4326,
      "ĠPrimary": 4327,
      "ĠPrevention": 4328,
      "uset": 4329,
      "Ġforger": 4330,
      "Ġforcing": 4331,
      "ĠTheir": 4332,
      "ĠTheatre": 4333,
      "Ġheir": 4334,
      "Ġhealth": 4335,
      "Ġhearings": 4336,
      "geant": 4337,
      "geons": 4338,
      "ivity": 4339,
      "ĠGil": 4340,
      "ĠGam": 4341,
      "ĠGra": 4342,
      "ĠGame": 4343,
      "ĠGreat": 4344,
      "ĠGros": 4345,
      "ĠGree": 4346,
      "ĠGoh": 4347,
      "ĠGreen": 4348,
      "ĠGillian": 4349,
      "ĠGorman": 4350,
      "ĠGleeson": 4351,
      "ids": 4352,
      "iding": 4353,
      "idered": 4354,
      "idden": 4355,
      "idote": 4356,
      "cht": 4357,
      "church": 4358,
      "aded": 4359,
      "ading": 4360,
      "adow": 4361,
      "Ġwhite": 4362,
      "pping": 4363,
      "utions": 4364,
      "utron": 4365,
      "utger": 4366,
      "ĠRed": 4367,
      "ĠRet": 4368,
      "ĠRos": 4369,
      "ĠRod": 4370,
      "ĠRab": 4371,
      "ĠRok": 4372,
      "ĠRade": 4373,
      "ĠRoss": 4374,
      "ĠRiley": 4375,
      "ĠRoyal": 4376,
      "ĠRÃ¤": 4377,
      "ĠMe": 4378,
      "ĠMin": 4379,
      "ĠMet": 4380,
      "ĠMem": 4381,
      "ĠMov": 4382,
      "ĠMind": 4383,
      "ĠMix": 4384,
      "ĠMember": 4385,
      "ĠMass": 4386,
      "ĠMike": 4387,
      "ĠMex": 4388,
      "ĠMardyck": 4389,
      "Ġwithdraw": 4390,
      "ĠNot": 4391,
      "ĠNord": 4392,
      "ĠNag": 4393,
      "ĠNations": 4394,
      "ĠNetwork": 4395,
      "ĠNicolas": 4396,
      "irmed": 4397,
      "irgin": 4398,
      "irlfriend": 4399,
      "ersation": 4400,
      "ership": 4401,
      "ersey": 4402,
      "ulating": 4403,
      "ĠIf": 4404,
      "ĠIm": 4405,
      "ĠIts": 4406,
      "ĠIris": 4407,
      "ĠIslands": 4408,
      "Ġsto": 4409,
      "Ġstation": 4410,
      "Ġstab": 4411,
      "Ġstran": 4412,
      "Ġstead": 4413,
      "Ġstories": 4414,
      "Ġstrange": 4415,
      "Ġstatus": 4416,
      "ĠHam": 4417,
      "ĠHart": 4418,
      "ĠHert": 4419,
      "ĠHugh": 4420,
      "ĠHaving": 4421,
      "ĠHau": 4422,
      "ĠHPA": 4423,
      "ĠHiros": 4424,
      "ĠWall": 4425,
      "ĠWater": 4426,
      "ĠWestern": 4427,
      "iste": 4428,
      "istan": 4429,
      "istem": 4430,
      "istential": 4431,
      "owers": 4432,
      "ĠJess": 4433,
      "ĠJean": 4434,
      "ĠJersey": 4435,
      "etic": 4436,
      "estinal": 4437,
      "emb": 4438,
      "ems": 4439,
      "ĠFort": 4440,
      "ĠFore": 4441,
      "ĠFred": 4442,
      "ĠFound": 4443,
      "ĠForm": 4444,
      "ĠFoot": 4445,
      "ĠFusion": 4446,
      "ĠForb": 4447,
      "ĠFlying": 4448,
      "ĠFingeroth": 4449,
      "ĠOff": 4450,
      "ĠOpen": 4451,
      "ĠOsc": 4452,
      "ĠOreg": 4453,
      "oper": 4454,
      "iage": 4455,
      "raising": 4456,
      "Ġconqu": 4457,
      "Ġconstit": 4458,
      "Ġconvert": 4459,
      "Ġconventional": 4460,
      "Ġ13": 4461,
      "Ġ14": 4462,
      "Ġgas": 4463,
      "Ġgrit": 4464,
      "Ġgang": 4465,
      "Ġgives": 4466,
      "Ġground": 4467,
      "Ġgains": 4468,
      "Ġgained": 4469,
      "Ġgrad": 4470,
      "Ġghost": 4471,
      "Ġgirlfriend": 4472,
      "illips": 4473,
      "illiant": 4474,
      "2000": 4475,
      "2010": 4476,
      "aker": 4477,
      "rial": 4478,
      "ript": 4479,
      "uded": 4480,
      "ĠKe": 4481,
      "ĠKen": 4482,
      "ĠKern": 4483,
      "ĠKÃ¶": 4484,
      "ĠKai": 4485,
      "ĠLin": 4486,
      "ĠLil": 4487,
      "ĠLight": 4488,
      "ĠLater": 4489,
      "ĠLife": 4490,
      "ĠLabor": 4491,
      "ĠLatin": 4492,
      "ĠLotus": 4493,
      "ifest": 4494,
      "ifies": 4495,
      "ifically": 4496,
      "ifiable": 4497,
      "Ġcomment": 4498,
      "Ġcomplicated": 4499,
      "Ġcomfort": 4500,
      "Ġdece": 4501,
      "Ġsuicide": 4502,
      "agement": 4503,
      "pted": 4504,
      "Ġsevent": 4505,
      "Ġseason": 4506,
      "Ġsewers": 4507,
      "Ġprob": 4508,
      "Ġproper": 4509,
      "Ġproved": 4510,
      "Ġprobe": 4511,
      "Ġproposed": 4512,
      "Ġprogram": 4513,
      "cip": 4514,
      "cially": 4515,
      "Ġitems": 4516,
      "acing": 4517,
      "aches": 4518,
      "acologist": 4519,
      "obook": 4520,
      "never": 4521,
      "ĠEll": 4522,
      "ĠEric": 4523,
      "ĠEvan": 4524,
      "Ġchap": 4525,
      "Ġchance": 4526,
      "Ġchamber": 4527,
      "ĠInd": 4528,
      "ĠIntern": 4529,
      "ardo": 4530,
      "Ġleave": 4531,
      "Ġleast": 4532,
      "Ġletter": 4533,
      "odies": 4534,
      "some": 4535,
      "Ġvict": 4536,
      "Ġviol": 4537,
      "Ġexchange": 4538,
      "Ġexhib": 4539,
      "Ġ193": 4540,
      "ants": 4541,
      "anted": 4542,
      "ounce": 4543,
      "ounts": 4544,
      "ogram": 4545,
      "umes": 4546,
      "uments": 4547,
      "Ġsleepless": 4548,
      "Ġincome": 4549,
      "Ġincons": 4550,
      "Ġincident": 4551,
      "Ġincomplete": 4552,
      "hyroid": 4553,
      "thing": 4554,
      "third": 4555,
      "Ġund": 4556,
      "Ġunivers": 4557,
      "oved": 4558,
      "Ġdisman": 4559,
      "Ġdispl": 4560,
      "Ġdisrupt": 4561,
      "Ġdisease": 4562,
      "Ġdismis": 4563,
      "ella": 4564,
      "elled": 4565,
      "nighthood": 4566,
      "aggie": 4567,
      "alling": 4568,
      "allment": 4569,
      "ieve": 4570,
      "Ġkm": 4571,
      "Ġkind": 4572,
      "Ġkept": 4573,
      "Ġknow": 4574,
      "Ġknowledge": 4575,
      "Ġknighthood": 4576,
      "plom": 4577,
      "plane": 4578,
      "Ġshare": 4579,
      "Ġshared": 4580,
      "Ġshipment": 4581,
      "Ġsharp": 4582,
      "Ġshares": 4583,
      "ĠUCL": 4584,
      "ĠUzbek": 4585,
      "Ġhasht": 4586,
      "ĠChicago": 4587,
      "acted": 4588,
      "active": 4589,
      "ucing": 4590,
      "endaÃ": 4591,
      "Ġplane": 4592,
      "Ġplush": 4593,
      "ocation": 4594,
      "Ġintell": 4595,
      "Ġintake": 4596,
      "Ġintended": 4597,
      "Ġintention": 4598,
      "apers": 4599,
      "rised": 4600,
      "Ġyet": 4601,
      "oster": 4602,
      "ournal": 4603,
      "derstand": 4604,
      "Ġabduct": 4605,
      "Ġappl": 4606,
      "Ġapprehen": 4607,
      "Ġresults": 4608,
      "Ġresidents": 4609,
      "Ġresume": 4610,
      "Ġneo": 4611,
      "Ġnext": 4612,
      "Ġneutron": 4613,
      "Ġcompos": 4614,
      "Ġcompulsive": 4615,
      "Ġ2015": 4616,
      "Ġ2017": 4617,
      "inding": 4618,
      "induced": 4619,
      "inducing": 4620,
      "Ġimage": 4621,
      "Ġimmed": 4622,
      "ulty": 4623,
      "onged": 4624,
      "rend": 4625,
      "Ġschem": 4626,
      "Ġscript": 4627,
      "Ġcontrary": 4628,
      "Ġcontrovers": 4629,
      "Ġrob": 4630,
      "mercial": 4631,
      "Ġtragedy": 4632,
      "egulation": 4633,
      "Ġrather": 4634,
      "Ġruse": 4635,
      "Ġteacher": 4636,
      "anded": 4637,
      "Ġpoll": 4638,
      "Ġpolicy": 4639,
      "urns": 4640,
      "itions": 4641,
      "Ġprevent": 4642,
      "Ġprestig": 4643,
      "ressing": 4644,
      "izoph": 4645,
      "ĠChristine": 4646,
      "peze": 4647,
      "pecially": 4648,
      "perate": 4649,
      "perarous": 4650,
      "Ġarea": 4651,
      "There": 4652,
      "Ġweb": 4653,
      "Ġwhether": 4654,
      "ĠUnable": 4655,
      "ĠUnderstand": 4656,
      "ĠState": 4657,
      "ĠSteel": 4658,
      "Ġthemsel": 4659,
      "Ġserial": 4660,
      "ĠAlso": 4661,
      "ĠAlbert": 4662,
      "ĠAlamos": 4663,
      "Ġcannot": 4664,
      "Ġcancer": 4665,
      "ustr": 4666,
      "uster": 4667,
      "Ġpartn": 4668,
      "Ġparty": 4669,
      "Ġpartner": 4670,
      "Ġdesire": 4671,
      "Ġattend": 4672,
      "Ġattended": 4673,
      "Ġattention": 4674,
      "rypted": 4675,
      "Ġitself": 4676,
      "Inception": 4677,
      "Ġafterwards": 4678,
      "ficial": 4679,
      "ensen": 4680,
      "ensely": 4681,
      "ensib": 4682,
      "Ġsole": 4683,
      "icken": 4684,
      "Ġemitter": 4685,
      "Ġempire": 4686,
      "Ġaddition": 4687,
      "Ġadvert": 4688,
      "Ġadvis": 4689,
      "Ġadults": 4690,
      "Ġclin": 4691,
      "Ġclosed": 4692,
      "Ġstoryline": 4693,
      "thew": 4694,
      "Ġcrashes": 4695,
      "Ġperspect": 4696,
      "dues": 4697,
      "duce": 4698,
      "duction": 4699,
      "key": 4700,
      "Ġaccus": 4701,
      "Ġaccident": 4702,
      "Ġaccurately": 4703,
      "Ġaccounts": 4704,
      "Ġphysiological": 4705,
      "Ġcommitted": 4706,
      "Ġimpressed": 4707,
      "Ġimpossible": 4708,
      "Ġcharacteristic": 4709,
      "gling": 4710,
      "Ġenv": 4711,
      "Ġenem": 4712,
      "Ġenough": 4713,
      "Ġenjoy": 4714,
      "Ġenlists": 4715,
      "Ġinternational": 4716,
      "Ġinterrog": 4717,
      "Ġinteractions": 4718,
      "Ġdirection": 4719,
      "Ġstudies": 4720,
      "Ġstudying": 4721,
      "owned": 4722,
      "Ġgoal": 4723,
      "awn": 4724,
      "Ġoutside": 4725,
      "Ġcoin": 4726,
      "Ġcoach": 4727,
      "ĠBordwell": 4728,
      "rowing": 4729,
      "achuset": 4730,
      "Ġje": 4731,
      "Ġsynchron": 4732,
      "Ġplayer": 4733,
      "Ġspan": 4734,
      "Ġspent": 4735,
      "Ġspend": 4736,
      "Ġspace": 4737,
      "Ġsprays": 4738,
      "Ġblame": 4739,
      "Ġunderlying": 4740,
      "Ġdepend": 4741,
      "Ġdepiction": 4742,
      "ĠThree": 4743,
      "Ġrelax": 4744,
      "Ġrelieve": 4745,
      "Ġretire": 4746,
      "ologies": 4747,
      "ĠScore": 4748,
      "Ġgenres": 4749,
      "ĠLeahy": 4750,
      "space": 4751,
      "Ġindeed": 4752,
      "Ġindicate": 4753,
      "Ġposit": 4754,
      "Ġdreaming": 4755,
      "Ġmeans": 4756,
      "Ġmeets": 4757,
      "Ġnovelization": 4758,
      "Ġsubst": 4759,
      "Ġsubdues": 4760,
      "Ġpersona": 4761,
      "Ġmove": 4762,
      "Ġportrayal": 4763,
      "Ġphase": 4764,
      "Ġphones": 4765,
      "Ġphrase": 4766,
      "ĠArr": 4767,
      "ĠArt": 4768,
      "ĠArch": 4769,
      "ĠArts": 4770,
      "Ġidentified": 4771,
      "Ġidentifiable": 4772,
      "angar": 4773,
      "Ġinstantly": 4774,
      "Ġinstallment": 4775,
      "lections": 4776,
      "Ġdeaths": 4777,
      "Ġexpose": 4778,
      "Ġexpensive": 4779,
      "Ġexpanded": 4780,
      "Ġ1993": 4781,
      "Ġ1995": 4782,
      "Ġ1999": 4783,
      "ograp": 4784,
      "Ġsecondary": 4785,
      "Ġqualified": 4786,
      "Ġauditioned": 4787,
      "Ġsomeone": 4788,
      "Ġsomebody": 4789,
      "itting": 4790,
      "Ġcreation": 4791,
      "Ġmedi": 4792,
      "Ġrealized": 4793,
      "ĠFilms": 4794,
      "ĠFilming": 4795,
      "ĠVance": 4796,
      "ĠVirgin": 4797,
      "Ġsetting": 4798,
      "Ġbroke": 4799,
      "Ġmoderate": 4800,
      "Ġrevive": 4801,
      "Ġrevocation": 4802,
      "Ġleader": 4803,
      "Ġleadership": 4804,
      "Ġ1950": 4805,
      "Ġ1953": 4806,
      "Ġpublicly": 4807,
      "ibility": 4808,
      "ibilities": 4809,
      "Ġrare": 4810,
      "Ġracing": 4811,
      "rett": 4812,
      "Ġfinding": 4813,
      "Ġfindings": 4814,
      "Ġwants": 4815,
      "arring": 4816,
      "arriage": 4817,
      "Ġofficer": 4818,
      "Ġremember": 4819,
      "Ġremained": 4820,
      "Ġreminisc": 4821,
      "Ġremoved": 4822,
      "Ġassists": 4823,
      "Ġassociate": 4824,
      "Ġdevelops": 4825,
      "Ġsevere": 4826,
      "risoner": 4827,
      "Ġtechnoc": 4828,
      "Ġaudiobook": 4829,
      "Ġfollows": 4830,
      "Ġbombs": 4831,
      "Ġmenopause": 4832,
      "Ġmagical": 4833,
      "Ġmagaz": 4834,
      "ĠBritain": 4835,
      "ĠPrix": 4836,
      "ĠRelease": 4837,
      "ĠReceiving": 4838,
      "Ġconfl": 4839,
      "Ġconfirmed": 4840,
      "ification": 4841,
      "Ġextre": 4842,
      "Ġ1962": 4843,
      "Ġ1963": 4844,
      "Ġ1964": 4845,
      "Ġartistic": 4846,
      "ditionally": 4847,
      "Ġ80": 4848,
      "Ġcentre": 4849,
      "Ġprisoners": 4850,
      "Ġthroat": 4851,
      "Ġlongitude": 4852,
      "ĠMalo": 4853,
      "racts": 4854,
      "Ġcontinues": 4855,
      "Ġcontinually": 4856,
      "ekly": 4857,
      "exam": 4858,
      "exper": 4859,
      "Ġ62": 4860,
      "Ġ65": 4861,
      "Ġedit": 4862,
      "Ġedited": 4863,
      "Ġediting": 4864,
      "Ġtestimony": 4865,
      "Ġsurf": 4866,
      "Ġsurround": 4867,
      "Ġsurvey": 4868,
      "Ġdiplom": 4869,
      "ĠSchuster": 4870,
      "Ġthoughts": 4871,
      "Ġlights": 4872,
      "Ġlighting": 4873,
      "ĠHoward": 4874,
      "Ġprototype": 4875,
      "Ġprotagon": 4876,
      "Ġappearing": 4877,
      "Ġappearances": 4878,
      "Ġgeneral": 4879,
      "Ġgeneration": 4880,
      "Ġawakenings": 4881,
      "Ġbombings": 4882,
      "Ġespecially": 4883,
      "Ġtransp": 4884,
      "Ġsmug": 4885,
      "Ġpromises": 4886,
      "Ġhypert": 4887,
      "Ġhyperarous": 4888,
      "Ġminimal": 4889,
      "Ġmainstream": 4890,
      "Ġrefers": 4891,
      "Ġreflected": 4892,
      "ĠAdmin": 4893,
      "ĠAtomic": 4894,
      "Ġnominations": 4895,
      "ĠFrank": 4896,
      "Ġsupports": 4897,
      "Ġsupporting": 4898,
      "Ġuncle": 4899,
      "Ġunconventional": 4900,
      "Ġnewly": 4901,
      "ointment": 4902,
      "Ġpsychology": 4903,
      "mination": 4904,
      "minute": 4905,
      "Ġamount": 4906,
      "Ġsignal": 4907,
      "Ġbackst": 4908,
      "Ġmuseum": 4909,
      "Ġreference": 4910,
      "ĠProt": 4911,
      "ĠProduction": 4912,
      "Ġexplode": 4913,
      "Ġkeeps": 4914,
      "Ġfeeling": 4915,
      "Ġattempting": 4916,
      "Ġdestroyed": 4917,
      "Ġdestroying": 4918,
      "Ã©e": 4919,
      "Ġolder": 4920,
      "Ġcaught": 4921,
      "Ġbridge": 4922,
      "Ġbrilliant": 4923,
      "ĠDean": 4924,
      "ĠDeath": 4925,
      "Ġeffectively": 4926,
      "Ġnoise": 4927,
      "ĠOrnd": 4928,
      "2008": 4929,
      "Ġdefense": 4930,
      "Ġlegs": 4931,
      "Ġlegal": 4932,
      "Ġlegacy": 4933,
      "Ġlegisl": 4934,
      "Ġ1983": 4935,
      "Ġ1989": 4936,
      "Ġpremature": 4937,
      "Ġtranscri": 4938,
      "ielberg": 4939,
      "who": 4940,
      "while": 4941,
      "Ġelder": 4942,
      "Ġelite": 4943,
      "Ġturns": 4944,
      "Ġfourth": 4945,
      "Ġbuilding": 4946,
      "Ġposted": 4947,
      "Ġprincip": 4948,
      "Ġoffice": 4949,
      "Ġmiles": 4950,
      "ĠSpencer": 4951,
      "ĠSpielberg": 4952,
      "Ġepistem": 4953,
      "Ġconcern": 4954,
      "Ġconclusion": 4955,
      "Ġresearc": 4956,
      "Ġemploys": 4957,
      "Ġemployment": 4958,
      "Ġpopularity": 4959,
      "Ġspecialist": 4960,
      "Ġpromote": 4961,
      "Ġburglary": 4962,
      "Ġburglaries": 4963,
      "loads": 4964,
      "Ġ40": 4965,
      "Ġtype": 4966,
      "Ġfinished": 4967,
      "Ġfinancial": 4968,
      "Ġfully": 4969,
      "Ġfocuses": 4970,
      "Ġdelayed": 4971,
      "Ġdownloads": 4972,
      "Ġmask": 4973,
      "Ġmemory": 4974,
      "Ġ1945": 4975,
      "Ġplanning": 4976,
      "Ġplanned": 4977,
      "Ġresulting": 4978,
      "Ġrespective": 4979,
      "Ġwebsites": 4980,
      "Ġpositions": 4981,
      "Ġcampaigns": 4982,
      "gium": 4983,
      "lined": 4984,
      "ofs": 4985,
      "shir": 4986,
      "shire": 4987,
      "sharing": 4988,
      "Ġschizoph": 4989,
      "Ġopera": 4990,
      "Ġoperations": 4991,
      "armacologist": 4992,
      "Ġchemist": 4993,
      "Ġchemical": 4994,
      "Ġchemistry": 4995,
      "Ġburns": 4996,
      "icularly": 4997,
      "Ġdiagnosed": 4998,
      "ĠSocial": 4999,
      "ĠSergeant": 5000,
      "ĠClark": 5001,
      "ĠClimate": 5002,
      "ĠCommander": 5003,
      "Ġlatter": 5004,
      "Ġlatest": 5005,
      "Ġlatency": 5006,
      "Ġlocation": 5007,
      "Ġeffort": 5008,
      "ĠPeters": 5009,
      "ĠRoeg": 5010,
      "ĠRozenthal": 5011,
      "Ġstrong": 5012,
      "Ġstressful": 5013,
      "Ġguid": 5014,
      "Ġguilt": 5015,
      "Ġguitar": 5016,
      "Ġsuggests": 5017,
      "Ġsuggested": 5018,
      "Ġsequence": 5019,
      "Ġprolonged": 5020,
      "ĠEdward": 5021,
      "ĠEditing": 5022,
      "ĠEdwin": 5023,
      "Ġ1975": 5024,
      "Ġkicks": 5025,
      "Ġkicker": 5026,
      "Ġimagery": 5027,
      "Ġpossess": 5028,
      "Ġpossibilities": 5029,
      "Ġmeasure": 5030,
      "Ġmeasures": 5031,
      "Ġmeasured": 5032,
      "Ġquestions": 5033,
      "Ġpremiere": 5034,
      "Ġoccurs": 5035,
      "ikkÃ¶": 5036,
      "ysed": 5037,
      "Ġtask": 5038,
      "Ġtrip": 5039,
      "Ġobserved": 5040,
      "Ġcinematic": 5041,
      "Ġpractices": 5042,
      "Ġdriving": 5043,
      "Ġmentor": 5044,
      "Ġmental": 5045,
      "ĠSmyth": 5046,
      "ĠCollection": 5047,
      "Ġthreatens": 5048,
      "Ġthinking": 5049,
      "Ġbegins": 5050,
      "Ġlifeless": 5051,
      "Ġlabel": 5052,
      "Ġlabyrin": 5053,
      "Ġeverything": 5054,
      "Ġheavy": 5055,
      "Ġheartburn": 5056,
      "ĠWeekly": 5057,
      "Ġconversation": 5058,
      "Ġconstruct": 5059,
      "Ġconstruction": 5060,
      "ĠLegend": 5061,
      "Ġprojects": 5062,
      "Ġprojections": 5063,
      "ĠExeter": 5064,
      "Ġviews": 5065,
      "Ġshifts": 5066,
      "Ġallowed": 5067,
      "Ġallowing": 5068,
      "Ġimprove": 5069,
      "Ġimportant": 5070,
      "Ġblackmail": 5071,
      "Ġsubjective": 5072,
      "Ġphotos": 5073,
      "Ġphotograph": 5074,
      "Ġmodels": 5075,
      "Ġregarded": 5076,
      "Ġtypical": 5077,
      "ĠEuropean": 5078,
      "Chris": 5079,
      "develop": 5080,
      "scale": 5081,
      "writer": 5082,
      "written": 5083,
      "Ġfrequ": 5084,
      "Ġfatale": 5085,
      "Ġflees": 5086,
      "Ġcountry": 5087,
      "Ġcountdown": 5088,
      "Ġpassengers": 5089,
      "Ġderives": 5090,
      "Ġderegulation": 5091,
      "Ġdeduced": 5092,
      "Ġdivided": 5093,
      "Ġdrama": 5094,
      "Ġmaturity": 5095,
      "Ġmidnight": 5096,
      "ĠBefore": 5097,
      "ropic": 5098,
      "ĠCanad": 5099,
      "ĠColin": 5100,
      "ĠCritical": 5101,
      "ĠCriterion": 5102,
      "Ġnearby": 5103,
      "ĠRegistry": 5104,
      "ĠRussell": 5105,
      "ĠMcFarl": 5106,
      "ĠMarion": 5107,
      "ĠMusÃ©e": 5108,
      "Ġstructures": 5109,
      "Ġdeeply": 5110,
      "Ġsuffix": 5111,
      "Ġsufficient": 5112,
      "Ġproviding": 5113,
      "Ġvirt": 5114,
      "Ġimplant": 5115,
      "Ġimplied": 5116,
      "Ġdesigned": 5117,
      "Ġembra": 5118,
      "Ġcommunes": 5119,
      "Ġengage": 5120,
      "Ġsafe": 5121,
      "Ġsafety": 5122,
      "ĠLeonardo": 5123,
      "Ġindustry": 5124,
      "Ġindustrial": 5125,
      "Ġphilosophy": 5126,
      "Ġphilosophical": 5127,
      "Ġrepresents": 5128,
      "Ġrepresented": 5129,
      "Ġhistorical": 5130,
      "Ġcamera": 5131,
      "Ġconfront": 5132,
      "Ġconfronts": 5133,
      "Ġsuccessfully": 5134,
      "Ġthoughtful": 5135,
      "Ġprotector": 5136,
      "Ġprotecting": 5137,
      "Ġrefused": 5138,
      "Ġrefuses": 5139,
      "Ġsignificantly": 5140,
      "Ġbringing": 5141,
      "Ġestablish": 5142,
      "Ġestablished": 5143,
      "Ġdelivered": 5144,
      "Ġbiographical": 5145,
      "Ġresponsible": 5146,
      "Ġresponsibility": 5147,
      "Alfred": 5148,
      "Josh": 5149,
      "Joseph": 5150,
      "conom": 5151,
      "equiv": 5152,
      "prescription": 5153,
      "vanced": 5154,
      "vements": 5155,
      "Ġrule": 5156,
      "Ġrien": 5157,
      "Ġessence": 5158,
      "Ġensure": 5159,
      "Ġensemble": 5160,
      "Ġtalks": 5161,
      "Ġacademic": 5162,
      "Ġacademics": 5163,
      "Ġachievements": 5164,
      "ervatory": 5165,
      "related": 5166,
      "Ġsedatives": 5167,
      "Ġsusp": 5168,
      "Ġwinner": 5169,
      "Ġantidote": 5170,
      "Ġanalysed": 5171,
      "Ġcapable": 5172,
      "Ġcareer": 5173,
      "Ġbelfry": 5174,
      "Ġbelfries": 5175,
      "Ġprivate": 5176,
      "Ġhomage": 5177,
      "Ġhoping": 5178,
      "Ġmarine": 5179,
      "ĠBelgium": 5180,
      "Ġreplaced": 5181,
      "Ġlimited": 5182,
      "Ġevac": 5183,
      "ĠPolice": 5184,
      "Ġfortress": 5185,
      "Ġfortune": 5186,
      "ĠGrande": 5187,
      "Ġsteals": 5188,
      "Ġstarts": 5189,
      "ĠHonorary": 5190,
      "ĠHenri": 5191,
      "ĠHenry": 5192,
      "ĠJulia": 5193,
      "ĠJulius": 5194,
      "Ġconferred": 5195,
      "Ġconference": 5196,
      "Ġalternate": 5197,
      "Ġalternative": 5198,
      "Ġdemands": 5199,
      "Ġdemanding": 5200,
      "Ġvocal": 5201,
      "Ġexample": 5202,
      "Ġexamination": 5203,
      "Ġexcessive": 5204,
      "aborated": 5205,
      "Ġresigns": 5206,
      "Ġneurotran": 5207,
      "Ġtravels": 5208,
      "Ġmanaging": 5209,
      "Ġagreement": 5210,
      "Ġaccountant": 5211,
      "Ġimpersonate": 5212,
      "Ġdoctorate": 5213,
      "ĠScreenplay": 5214,
      "Ġsubsequent": 5215,
      "Ġsubsequently": 5216,
      "Ġconsumed": 5217,
      "1955": 5218,
      "Ġmetabolic": 5219,
      "Ġmetabolism": 5220,
      "Ġrevolutionary": 5221,
      "Ġassessment": 5222,
      "Ġspecifically": 5223,
      "Ġterrorist": 5224,
      "Ġweaponry": 5225,
      "ĠAttorney": 5226,
      "ĠCommunist": 5227,
      "ĠCommunity": 5228,
      "Ġcivilian": 5229,
      "Ġmaterialistic": 5230,
      "Ġseparate": 5231,
      "ĠJapanese": 5232,
      "Ġemphasized": 5233,
      "Ġemphasize": 5234,
      "Ġinfiltrating": 5235,
      "Angier": 5236,
      "Batman": 5237,
      "Marion": 5238,
      "clusive": 5239,
      "iques": 5240,
      "kinson": 5241,
      "Ġtemper": 5242,
      "Ġsaved": 5243,
      "Ġsplit": 5244,
      "Ġsensations": 5245,
      "Ġshells": 5246,
      "Ġferry": 5247,
      "Ġfavor": 5248,
      "Ġfaculty": 5249,
      "Ġfranchise": 5250,
      "Ġanimated": 5251,
      "Ġcutting": 5252,
      "Ġcrowds": 5253,
      "Ġcategories": 5254,
      "Ġinherited": 5255,
      "Ġbeneficial": 5256,
      "Ġhormone": 5257,
      "Ġhumanity": 5258,
      "Ġdouble": 5259,
      "Ġdrawn": 5260,
      "ĠTechn": 5261,
      "ĠTrapeze": 5262,
      "Ġrendering": 5263,
      "Ġrepeated": 5264,
      "Ġrejected": 5265,
      "ĠSoviet": 5266,
      "ĠSeveral": 5267,
      "ĠCooper": 5268,
      "Ġloyalty": 5269,
      "ĠParty": 5270,
      "ĠPublic": 5271,
      "ĠPatrick": 5272,
      "ĠGerman": 5273,
      "ĠGlobe": 5274,
      "ĠMatter": 5275,
      "ĠMattel": 5276,
      "ĠNASA": 5277,
      "Ġstunts": 5278,
      "Ġstripped": 5279,
      "ĠWilkinson": 5280,
      "ĠObservatory": 5281,
      "ĠBatcave": 5282,
      "Ġconducted": 5283,
      "Ġgraph": 5284,
      "ĠKennan": 5285,
      "ĠLoeb": 5286,
      "Ġcomplimented": 5287,
      "Ġdecades": 5288,
      "Ġexactly": 5289,
      "Ġdissolve": 5290,
      "Ġdisappointment": 5291,
      "Ġdiscipline": 5292,
      "ĠUsually": 5293,
      "Ġabsorb": 5294,
      "Ġschedul": 5295,
      "Ġcontradict": 5296,
      "Ġrigged": 5297,
      "Ġruled": 5298,
      "Ġargues": 5299,
      "ĠStewart": 5300,
      "Ġmanipulate": 5301,
      "Ġrecruited": 5302,
      "Ġinstitutions": 5303,
      "Ġmetaphysical": 5304,
      "Ġrailway": 5305,
      "Ġregrette": 5306,
      "Ġeducation": 5307,
      "Ġsurvive": 5308,
      "Ġentirely": 5309,
      "Ġentertainment": 5310,
      "Ġpurchased": 5311,
      "Ġdetective": 5312,
      "Ġcapture": 5313,
      "Ġeliminate": 5314,
      "ĠJoshua": 5315,
      "Ġconcluded": 5316,
      "Ġemployee": 5317,
      "producer": 5318,
      "Ġexperimental": 5319,
      "Ġstrategic": 5320,
      "Ġbreaks": 5321,
      "Ġcollaborated": 5322,
      "Ġmathematically": 5323,
      "Ġincorporating": 5324,
      "Ġaccomplice": 5325,
      "Ġconnected": 5326,
      "Ġteleportation": 5327,
      "Ġencourages": 5328,
      "Ġirritability": 5329,
      "Ġarousal": 5330,
      "Ġwitnessed": 5331,
      "Ġhospital": 5332,
      "Ġhundreds": 5333,
      "ĠBAFTA": 5334,
      "Ġchallenging": 5335,
      "Ġorphanage": 5336,
      "Ġpolysomnography": 5337,
      "Avoiding": 5338,
      "Daniel": 5339,
      "Dunkirk": 5340,
      "Robert": 5341,
      "diagnosed": 5342,
      "hima": 5343,
      "largest": 5344,
      "lifeless": 5345,
      "poreal": 5346,
      "particularly": 5347,
      "suit": 5348,
      "smitter": 5349,
      "turned": 5350,
      "Ġtension": 5351,
      "Ġtickets": 5352,
      "Ġauteur": 5353,
      "Ġauthor": 5354,
      "instein": 5355,
      "represented": 5356,
      "Ġtheaters": 5357,
      "Ġsalary": 5358,
      "Ġfemme": 5359,
      "Ġfruition": 5360,
      "Ġfictional": 5361,
      "Ġfront": 5362,
      "Ġfield": 5363,
      "Ġwounded": 5364,
      "Ġostensib": 5365,
      "Ġcouple": 5366,
      "Ġcortisol": 5367,
      "Ġcustody": 5368,
      "Ġcalculate": 5369,
      "Ġcitizens": 5370,
      "Ġinexpensive": 5371,
      "Ġbirth": 5372,
      "Ġbludgeons": 5373,
      "Ġpleas": 5374,
      "Ġpraised": 5375,
      "Ġpackage": 5376,
      "Ġholes": 5377,
      "Ġhotel": 5378,
      "Ġhabits": 5379,
      "Ġhockey": 5380,
      "Ġharbour": 5381,
      "Ġdigital": 5382,
      "Ġduration": 5383,
      "Ġdementia": 5384,
      "Ġtools": 5385,
      "asaki": 5386,
      "association": 5387,
      "ĠBurton": 5388,
      "ĠTarantella": 5389,
      "Ġrehearsed": 5390,
      "ĠAugust": 5391,
      "ĠADHD": 5392,
      "ĠCatholic": 5393,
      "ĠCarmine": 5394,
      "ĠColeman": 5395,
      "ĠCambridge": 5396,
      "ĠCullen": 5397,
      "Ġthousands": 5398,
      "ĠDutch": 5399,
      "ĠDistrict": 5400,
      "ĠDiagnosis": 5401,
      "Ġevidence": 5402,
      "Ġnormal": 5403,
      "ĠGreatest": 5404,
      "ĠGrosjean": 5405,
      "ĠReturns": 5406,
      "ĠRosendaÃ": 5407,
      "ĠRabi": 5408,
      "ĠRoko": 5409,
      "ĠRÃ¤ikkÃ¶": 5410,
      "ĠMemorial": 5411,
      "ĠMixing": 5412,
      "ĠMassachuset": 5413,
      "ĠMexico": 5414,
      "Ġwithdrawal": 5415,
      "ĠNagasaki": 5416,
      "ĠIrish": 5417,
      "Ġstrangers": 5418,
      "Ġsteady": 5419,
      "ĠHertford": 5420,
      "ĠHauer": 5421,
      "ĠHiroshima": 5422,
      "istentialism": 5423,
      "ĠJessica": 5424,
      "ĠFrederick": 5425,
      "ĠFoundas": 5426,
      "ĠForbes": 5427,
      "ĠOfficer": 5428,
      "ĠOscars": 5429,
      "ĠOregon": 5430,
      "Ġgritty": 5431,
      "Ġgraduate": 5432,
      "Ġghostly": 5433,
      "ĠLaboratory": 5434,
      "Ġcomfortable": 5435,
      "Ġseventh": 5436,
      "ĠEvanston": 5437,
      "Ġchapter": 5438,
      "ĠInternational": 5439,
      "Ġvictims": 5440,
      "Ġsleeplessness": 5441,
      "Ġinconsistent": 5442,
      "hyroidism": 5443,
      "Ġuniverse": 5444,
      "Ġdisplays": 5445,
      "ĠUzbekistan": 5446,
      "Ġhashtag": 5447,
      "Ġapprehend": 5448,
      "Ġimmediately": 5449,
      "Ġscheme": 5450,
      "Ġprestiges": 5451,
      "ĠUnderstanding": 5452,
      "ĠSteelers": 5453,
      "Ġthemselves": 5454,
      "Ġadvertising": 5455,
      "Ġadvisor": 5456,
      "Ġperspectives": 5457,
      "Ġreminiscent": 5458,
      "Ġmagazine": 5459,
      "Ġhyperthyroidism": 5460,
      "Ġhyperarousal": 5461,
      "ĠAdminist": 5462,
      "ĠOrndorf": 5463,
      "Ġtranscript": 5464,
      "Ġepistemology": 5465,
      "Ġlabyrinth": 5466,
      "Ġblackmailing": 5467,
      "ĠMcFarlane": 5468,
      "Ġneurotransmitter": 5469,
      "Ġostensibly": 5470,
      "ĠRosendaÃ«l": 5471,
      "ĠRÃ¤ikkÃ¶nen": 5472,
      "ĠMassachusetts": 5473,
      "!\"": 5474,
      "\":": 5475,
      "\"),": 5476,
      "',": 5477,
      "'.": 5478,
      "'m": 5479,
      "'re": 5480,
      "'ve": 5481,
      "'\".:": 5482,
      ".'": 5483,
      ".)": 5484,
      ".;": 5485,
      ".),": 5486,
      "085": 5487,
      "13": 5488,
      "170": 5489,
      "110": 5490,
      "25": 5491,
      "26": 5492,
      "30": 5493,
      "392": 5494,
      "316": 5495,
      "326": 5496,
      "46": 5497,
      "47": 5498,
      "48": 5499,
      "52": 5500,
      "56": 5501,
      "67": 5502,
      "68": 5503,
      "69": 5504,
      "652": 5505,
      "715": 5506,
      "713": 5507,
      "84": 5508,
      "817": 5509,
      "837": 5510,
      "838": 5511,
      "8715": 5512,
      "95": 5513,
      "98": 5514,
      "99": 5515,
      "900": 5516,
      "970": 5517,
      "946": 5518,
      ";\"": 5519,
      "AB": 5520,
      "AR": 5521,
      "Ab": 5522,
      "Am": 5523,
      "At": 5524,
      "Ast": 5525,
      "Aid": 5526,
      "Around": 5527,
      "BI": 5528,
      "BO": 5529,
      "Ben": 5530,
      "Bord": 5531,
      "Bane": 5532,
      "Burn": 5533,
      "Book": 5534,
      "Brow": 5535,
      "Born": 5536,
      "Bird": 5537,
      "Bram": 5538,
      "Bald": 5539,
      "Beh": 5540,
      "BÃ¶": 5541,
      "Between": 5542,
      "Being": 5543,
      "Brett": 5544,
      "CO": 5545,
      "CS": 5546,
      "Cf": 5547,
      "Cal": 5548,
      "Cop": 5549,
      "Crit": 5550,
      "Carl": 5551,
      "Certain": 5552,
      "CEO": 5553,
      "CAR": 5554,
      "DK": 5555,
      "Di": 5556,
      "Dj": 5557,
      "Dr": 5558,
      "Dent": 5559,
      "Dam": 5560,
      "Day": 5561,
      "Dep": 5562,
      "Dist": 5563,
      "Dav": 5564,
      "Dif": 5565,
      "Deter": 5566,
      "Dead": 5567,
      "DMA": 5568,
      "Desh": 5569,
      "EM": 5570,
      "ES": 5571,
      "El": 5572,
      "Ex": 5573,
      "Eug": 5574,
      "Early": 5575,
      "Ell": 5576,
      "Emma": 5577,
      "Einstein": 5578,
      "For": 5579,
      "Five": 5580,
      "Fran": 5581,
      "Fire": 5582,
      "Four": 5583,
      "First": 5584,
      "French": 5585,
      "Following": 5586,
      "Feel": 5587,
      "Fingeroth": 5588,
      "Finding": 5589,
      "GI": 5590,
      "GN": 5591,
      "Gus": 5592,
      "Goth": 5593,
      "Gast": 5594,
      "GCPD": 5595,
      "Graw": 5596,
      "Growing": 5597,
      "HP": 5598,
      "Hy": 5599,
      "His": 5600,
      "Har": 5601,
      "Hol": 5602,
      "How": 5603,
      "Hear": 5604,
      "Horm": 5605,
      "Hara": 5606,
      "ID": 5607,
      "IS": 5608,
      "IHP": 5609,
      "Jo": 5610,
      "Jim": 5611,
      "Jun": 5612,
      "James": 5613,
      "Jean": 5614,
      "KU": 5615,
      "Knight": 5616,
      "Kyle": 5617,
      "Kipphardt": 5618,
      "Katie": 5619,
      "LM": 5620,
      "Lu": 5621,
      "Lou": 5622,
      "Long": 5623,
      "Life": 5624,
      "Lower": 5625,
      "Limbo": 5626,
      "Lawn": 5627,
      "MC": 5628,
      "Ma": 5629,
      "Mat": 5630,
      "Ment": 5631,
      "Mol": 5632,
      "Main": 5633,
      "More": 5634,
      "Mov": 5635,
      "Making": 5636,
      "Marr": 5637,
      "Mean": 5638,
      "Master": 5639,
      "Maggie": 5640,
      "Not": 5641,
      "Nest": 5642,
      "NES": 5643,
      "OS": 5644,
      "Ok": 5645,
      "On": 5646,
      "One": 5647,
      "Occ": 5648,
      "Oper": 5649,
      "PW": 5650,
      "Ph": 5651,
      "Per": 5652,
      "Pop": 5653,
      "Pain": 5654,
      "Pros": 5655,
      "People": 5656,
      "Publ": 5657,
      "PET": 5658,
      "Poor": 5659,
      "Pete": 5660,
      "Physical": 5661,
      "Paul": 5662,
      "PLM": 5663,
      "RK": 5664,
      "Red": 5665,
      "Rest": 5666,
      "Rather": 5667,
      "Rises": 5668,
      "Ross": 5669,
      "Rev": 5670,
      "Reb": 5671,
      "Rutger": 5672,
      "REM": 5673,
      "Sm": 5674,
      "Some": 5675,
      "Sign": 5676,
      "Sever": 5677,
      "Soel": 5678,
      "TV": 5679,
      "To": 5680,
      "Tin": 5681,
      "Tan": 5682,
      "Tal": 5683,
      "Tun": 5684,
      "Top": 5685,
      "Treat": 5686,
      "Try": 5687,
      "Tesla": 5688,
      "Toni": 5689,
      "Trouble": 5690,
      "UK": 5691,
      "UN": 5692,
      "UCL": 5693,
      "Using": 5694,
      "Vir": 5695,
      "Various": 5696,
      "Ville": 5697,
      "We": 5698,
      "With": 5699,
      "West": 5700,
      "Will": 5701,
      "Wire": 5702,
      "Waking": 5703,
      "Work": 5704,
      "When": 5705,
      "World": 5706,
      "XV": 5707,
      "Yusuf": 5708,
      "].": 5709,
      "aj": 5710,
      "aas": 5711,
      "ault": 5712,
      "aust": 5713,
      "aite": 5714,
      "aired": 5715,
      "aug": 5716,
      "aural": 5717,
      "aMarr": 5718,
      "bo": 5719,
      "bu": 5720,
      "ban": 5721,
      "bed": 5722,
      "bom": 5723,
      "bou": 5724,
      "big": 5725,
      "bul": 5726,
      "bia": 5727,
      "bend": 5728,
      "bour": 5729,
      "boy": 5730,
      "back": 5731,
      "bec": 5732,
      "bility": 5733,
      "bait": 5734,
      "belie": 5735,
      "bral": 5736,
      "bted": 5737,
      "borne": 5738,
      "binding": 5739,
      "cl": 5740,
      "cr": 5741,
      "che": 5742,
      "cion": 5743,
      "col": 5744,
      "cut": 5745,
      "cop": 5746,
      "cra": 5747,
      "cred": 5748,
      "clud": 5749,
      "cast": 5750,
      "cult": 5751,
      "case": 5752,
      "chel": 5753,
      "cular": 5754,
      "cock": 5755,
      "cross": 5756,
      "cisc": 5757,
      "cism": 5758,
      "cover": 5759,
      "chen": 5760,
      "cina": 5761,
      "counter": 5762,
      "cceed": 5763,
      "culating": 5764,
      "celled": 5765,
      "dÅ": 5766,
      "ded": 5767,
      "dro": 5768,
      "dun": 5769,
      "dith": 5770,
      "ders": 5771,
      "dest": 5772,
      "dem": 5773,
      "dark": 5774,
      "dated": 5775,
      "dup": 5776,
      "dale": 5777,
      "dose": 5778,
      "dream": 5779,
      "disc": 5780,
      "dune": 5781,
      "doss": 5782,
      "dains": 5783,
      "dys": 5784,
      "drop": 5785,
      "dressing": 5786,
      "eu": 5787,
      "ees": 5788,
      "eal": 5789,
      "eig": 5790,
      "eur": 5791,
      "ech": 5792,
      "eif": 5793,
      "eated": 5794,
      "eace": 5795,
      "every": 5796,
      "effect": 5797,
      "eoff": 5798,
      "element": 5799,
      "effects": 5800,
      "eleb": 5801,
      "fl": 5802,
      "fil": 5803,
      "fers": 5804,
      "fect": 5805,
      "fill": 5806,
      "fall": 5807,
      "fire": 5808,
      "fact": 5809,
      "fier": 5810,
      "fron": 5811,
      "foot": 5812,
      "fiel": 5813,
      "fric": 5814,
      "fling": 5815,
      "feel": 5816,
      "funn": 5817,
      "forting": 5818,
      "franch": 5819,
      "frame": 5820,
      "funct": 5821,
      "faces": 5822,
      "flections": 5823,
      "feif": 5824,
      "gg": 5825,
      "go": 5826,
      "gr": 5827,
      "gá": 5828,
      "gel": 5829,
      "got": 5830,
      "gir": 5831,
      "gow": 5832,
      "gia": 5833,
      "gra": 5834,
      "gri": 5835,
      "gard": 5836,
      "goth": 5837,
      "gth": 5838,
      "gence": 5839,
      "gthe": 5840,
      "gives": 5841,
      "gating": 5842,
      "grand": 5843,
      "groom": 5844,
      "hn": 5845,
      "hp": 5846,
      "han": 5847,
      "hor": 5848,
      "har": 5849,
      "hus": 5850,
      "hun": 5851,
      "hut": 5852,
      "how": 5853,
      "high": 5854,
      "hab": 5855,
      "hous": 5856,
      "hse": 5857,
      "hand": 5858,
      "hness": 5859,
      "haring": 5860,
      "hold": 5861,
      "hances": 5862,
      "hlet": 5863,
      "hilar": 5864,
      "havioral": 5865,
      "hÃ¤": 5866,
      "hma": 5867,
      "hadow": 5868,
      "hropic": 5869,
      "iar": 5870,
      "iod": 5871,
      "iary": 5872,
      "iked": 5873,
      "iology": 5874,
      "iets": 5875,
      "iÃ¨": 5876,
      "ienthal": 5877,
      "ija": 5878,
      "iograp": 5879,
      "jest": 5880,
      "juring": 5881,
      "join": 5882,
      "junct": 5883,
      "jata": 5884,
      "ka": 5885,
      "kÉ": 5886,
      "ken": 5887,
      "kas": 5888,
      "kel": 5889,
      "kib": 5890,
      "kept": 5891,
      "kull": 5892,
      "kurk": 5893,
      "lis": 5894,
      "lor": 5895,
      "las": 5896,
      "luc": 5897,
      "long": 5898,
      "land": 5899,
      "loy": 5900,
      "lied": 5901,
      "look": 5902,
      "lared": 5903,
      "lock": 5904,
      "lled": 5905,
      "lator": 5906,
      "layer": 5907,
      "laden": 5908,
      "mon": 5909,
      "mor": 5910,
      "ming": 5911,
      "mal": 5912,
      "mic": 5913,
      "mas": 5914,
      "mers": 5915,
      "mark": 5916,
      "mated": 5917,
      "mie": 5918,
      "mend": 5919,
      "most": 5920,
      "math": 5921,
      "mond": 5922,
      "mely": 5923,
      "making": 5924,
      "mower": 5925,
      "mities": 5926,
      "matt": 5927,
      "matic": 5928,
      "meter": 5929,
      "mology": 5930,
      "mography": 5931,
      "midge": 5932,
      "mingly": 5933,
      "master": 5934,
      "mitted": 5935,
      "mbol": 5936,
      "mÉĻ": 5937,
      "na": 5938,
      "ni": 5939,
      "no": 5940,
      "nx": 5941,
      "ny": 5942,
      "nor": 5943,
      "nes": 5944,
      "nel": 5945,
      "nus": 5946,
      "nop": 5947,
      "nated": 5948,
      "nost": 5949,
      "nons": 5950,
      "novel": 5951,
      "nced": 5952,
      "named": 5953,
      "nio": 5954,
      "nold": 5955,
      "nais": 5956,
      "network": 5957,
      "nitude": 5958,
      "ncop": 5959,
      "oit": 5960,
      "oes": 5961,
      "oins": 5962,
      "oft": 5963,
      "oley": 5964,
      "oided": 5965,
      "oads": 5966,
      "oetic": 5967,
      "oactive": 5968,
      "oofs": 5969,
      "oCop": 5970,
      "pa": 5971,
      "pin": 5972,
      "pon": 5973,
      "pat": 5974,
      "pil": 5975,
      "pion": 5976,
      "pet": 5977,
      "pri": 5978,
      "prom": 5979,
      "pond": 5980,
      "pine": 5981,
      "press": 5982,
      "pip": 5983,
      "pone": 5984,
      "poin": 5985,
      "pired": 5986,
      "pret": 5987,
      "pass": 5988,
      "pio": 5989,
      "ports": 5990,
      "pressed": 5991,
      "pnot": 5992,
      "poses": 5993,
      "phet": 5994,
      "panies": 5995,
      "powers": 5996,
      "papers": 5997,
      "prisoner": 5998,
      "pshire": 5999,
      "rity": 6000,
      "rated": 6001,
      "rant": 6002,
      "rich": 6003,
      "rath": 6004,
      "rast": 6005,
      "rong": 6006,
      "rren": 6007,
      "rick": 6008,
      "ramed": 6009,
      "rived": 6010,
      "rator": 6011,
      "rating": 6012,
      "ratic": 6013,
      "rÃ©": 6014,
      "runn": 6015,
      "rivate": 6016,
      "rigue": 6017,
      "ss": 6018,
      "sed": 6019,
      "sit": 6020,
      "sar": 6021,
      "sas": 6022,
      "sam": 6023,
      "sist": 6024,
      "sud": 6025,
      "suc": 6026,
      "song": 6027,
      "sound": 6028,
      "sions": 6029,
      "saying": 6030,
      "such": 6031,
      "scapes": 6032,
      "sah": 6033,
      "skill": 6034,
      "siÃ¨": 6035,
      "ti": 6036,
      "tes": 6037,
      "tion": 6038,
      "tent": 6039,
      "tot": 6040,
      "tage": 6041,
      "tap": 6042,
      "tong": 6043,
      "teg": 6044,
      "takes": 6045,
      "tting": 6046,
      "tract": 6047,
      "tained": 6048,
      "tner": 6049,
      "taker": 6050,
      "ule": 6051,
      "uce": 6052,
      "uep": 6053,
      "uation": 6054,
      "uity": 6055,
      "uos": 6056,
      "uated": 6057,
      "uart": 6058,
      "uous": 6059,
      "uert": 6060,
      "uff": 6061,
      "uve": 6062,
      "uish": 6063,
      "urol": 6064,
      "uze": 6065,
      "uaire": 6066,
      "uzz": 6067,
      "uency": 6068,
      "vy": 6069,
      "vre": 6070,
      "vit": 6071,
      "vro": 6072,
      "vity": 6073,
      "vok": 6074,
      "voc": 6075,
      "vast": 6076,
      "vide": 6077,
      "vious": 6078,
      "viol": 6079,
      "viated": 6080,
      "ws": 6081,
      "whe": 6082,
      "wis": 6083,
      "war": 6084,
      "was": 6085,
      "went": 6086,
      "with": 6087,
      "wight": 6088,
      "wear": 6089,
      "wich": 6090,
      "wake": 6091,
      "ware": 6092,
      "whel": 6093,
      "wise": 6094,
      "ways": 6095,
      "wrote": 6096,
      "wash": 6097,
      "watch": 6098,
      "weet": 6099,
      "waite": 6100,
      "xy": 6101,
      "xic": 6102,
      "xible": 6103,
      "xford": 6104,
      "ye": 6105,
      "ym": 6106,
      "yed": 6107,
      "yron": 6108,
      "yles": 6109,
      "yric": 6110,
      "ydia": 6111,
      "zi": 6112,
      "zy": 6113,
      "zer": 6114,
      "zes": 6115,
      "zar": 6116,
      "zel": 6117,
      "zep": 6118,
      "zod": 6119,
      "zones": 6120,
      "zole": 6121,
      "zco": 6122,
      "znor": 6123,
      "},": 6124,
      "}},": 6125,
      "¹Ľ": 6126,
      "»į": 6127,
      "¼rren": 6128,
      "¾ija": 6129,
      "Ãł": 6130,
      "Ã¼rren": 6131,
      "Å¾ija": 6132,
      "Êģ": 6133,
      "Ìĥ": 6134,
      "á¹Ľ": 6135,
      "Ġ)": 6136,
      "Ġ+": 6137,
      "Ġur": 6138,
      "Ġut": 6139,
      "Ġire": 6140,
      "Ġurn": 6141,
      "Ġign": 6142,
      "Ġrand": 6143,
      "Ġranch": 6144,
      "Ġub": 6145,
      "Ġupp": 6146,
      "Ġ900": 6147,
      "ĠXV": 6148,
      "Ġzones": 6149,
      "ĠÃł": 6150,
      "ļat": 6151,
      "ĽÊģ": 6152,
      "łer": 6153,
      "Ġtre": 6154,
      "Ġten": 6155,
      "Ġtimer": 6156,
      "Ġties": 6157,
      "Ġtact": 6158,
      "Ġtap": 6159,
      "Ġtable": 6160,
      "Ġtired": 6161,
      "Ġtones": 6162,
      "Ġtenth": 6163,
      "Ġtunn": 6164,
      "Ġtrend": 6165,
      "Ġaer": 6166,
      "Ġaest": 6167,
      "Ġaver": 6168,
      "Ġari": 6169,
      "Ġappen": 6170,
      "Ġaff": 6171,
      "Ġaren": 6172,
      "Ġavert": 6173,
      "Ġaids": 6174,
      "Ġafl": 6175,
      "heon": 6176,
      "herent": 6177,
      "heads": 6178,
      "headed": 6179,
      "ino": 6180,
      "iner": 6181,
      "init": 6182,
      "inar": 6183,
      "inil": 6184,
      "inent": 6185,
      "inch": 6186,
      "inist": 6187,
      "inet": 6188,
      "insomnia": 6189,
      "inely": 6190,
      "inception": 6191,
      "invent": 6192,
      "inite": 6193,
      "inction": 6194,
      "inator": 6195,
      "inating": 6196,
      "inÃ©": 6197,
      "initive": 6198,
      "incing": 6199,
      "inner": 6200,
      "incent": 6201,
      "inois": 6202,
      "invention": 6203,
      "invas": 6204,
      "inyl": 6205,
      "incts": 6206,
      "era": 6207,
      "eron": 6208,
      "eric": 6209,
      "erist": 6210,
      "erra": 6211,
      "erver": 6212,
      "erates": 6213,
      "erger": 6214,
      "erning": 6215,
      "erhero": 6216,
      "erina": 6217,
      "erading": 6218,
      "ercion": 6219,
      "erfiel": 6220,
      "erken": 6221,
      "ona": 6222,
      "onst": 6223,
      "onge": 6224,
      "onment": 6225,
      "onse": 6226,
      "onning": 6227,
      "onents": 6228,
      "onja": 6229,
      "onuments": 6230,
      "onclusive": 6231,
      "onfil": 6232,
      "rees": 6233,
      "rect": 6234,
      "read": 6235,
      "reation": 6236,
      "reci": 6237,
      "renia": 6238,
      "report": 6239,
      "release": 6240,
      "recht": 6241,
      "Ġtheor": 6242,
      "Ġtheater": 6243,
      "Ġtheft": 6244,
      "Ġtheatre": 6245,
      "ato": 6246,
      "atur": 6247,
      "atant": 6248,
      "athy": 6249,
      "atray": 6250,
      "atise": 6251,
      "atists": 6252,
      "atized": 6253,
      "atility": 6254,
      "atively": 6255,
      "atients": 6256,
      "atural": 6257,
      "atheon": 6258,
      "eno": 6259,
      "ener": 6260,
      "enis": 6261,
      "ening": 6262,
      "enom": 6263,
      "enst": 6264,
      "enage": 6265,
      "eneral": 6266,
      "ength": 6267,
      "enzod": 6268,
      "isan": 6269,
      "ister": 6270,
      "isive": 6271,
      "isions": 6272,
      "israd": 6273,
      "isters": 6274,
      "istered": 6275,
      "isban": 6276,
      "Ġsing": 6277,
      "Ġsil": 6278,
      "Ġsent": 6279,
      "Ġsou": 6280,
      "Ġsay": 6281,
      "Ġsun": 6282,
      "Ġsad": 6283,
      "Ġsow": 6284,
      "Ġsop": 6285,
      "Ġsight": 6286,
      "Ġsac": 6287,
      "Ġsort": 6288,
      "Ġshy": 6289,
      "Ġsab": 6290,
      "Ġsons": 6291,
      "Ġsaw": 6292,
      "Ġstern": 6293,
      "Ġsided": 6294,
      "Ġsinger": 6295,
      "Ġsends": 6296,
      "Ġslight": 6297,
      "Ġskill": 6298,
      "Ġslate": 6299,
      "ana": 6300,
      "aning": 6301,
      "anal": 6302,
      "ange": 6303,
      "anch": 6304,
      "ander": 6305,
      "anoid": 6306,
      "animate": 6307,
      "ancy": 6308,
      "anxiety": 6309,
      "anaz": 6310,
      "anned": 6311,
      "anishes": 6312,
      "anwhile": 6313,
      "oro": 6314,
      "oring": 6315,
      "oration": 6316,
      "orous": 6317,
      "ormer": 6318,
      "orsp": 6319,
      "orrupt": 6320,
      "orail": 6321,
      "orians": 6322,
      "orters": 6323,
      "orric": 6324,
      "orize": 6325,
      "orrowing": 6326,
      "orzel": 6327,
      "Ġfed": 6328,
      "Ġfit": 6329,
      "Ġfas": 6330,
      "Ġfol": 6331,
      "Ġfra": 6332,
      "Ġfill": 6333,
      "Ġfres": 6334,
      "Ġfore": 6335,
      "Ġfant": 6336,
      "Ġfoun": 6337,
      "Ġfart": 6338,
      "Ġfire": 6339,
      "Ġfence": 6340,
      "Ġfame": 6341,
      "Ġfile": 6342,
      "Ġfears": 6343,
      "Ġfare": 6344,
      "Ġfates": 6345,
      "Ġfakes": 6346,
      "Ġfood": 6347,
      "Ġfram": 6348,
      "Ġfair": 6349,
      "Ġflying": 6350,
      "Ġfantasy": 6351,
      "Ġfailed": 6352,
      "Ġfiled": 6353,
      "Ġfunct": 6354,
      "Ġfires": 6355,
      "Ġfores": 6356,
      "Ġfaded": 6357,
      "Ġfoster": 6358,
      "Ġframed": 6359,
      "Ġfuze": 6360,
      "edom": 6361,
      "edge": 6362,
      "edia": 6363,
      "edway": 6364,
      "ederation": 6365,
      "Ġwar": 6366,
      "Ġwest": 6367,
      "Ġwall": 6368,
      "Ġwind": 6369,
      "Ġwide": 6370,
      "Ġwine": 6371,
      "Ġwild": 6372,
      "Ġwakes": 6373,
      "Ġwarr": 6374,
      "Ġwalle": 6375,
      "Ġwrong": 6376,
      "iti": 6377,
      "itan": 6378,
      "itent": 6379,
      "itly": 6380,
      "itage": 6381,
      "iture": 6382,
      "itous": 6383,
      "itory": 6384,
      "itations": 6385,
      "itics": 6386,
      "itte": 6387,
      "itable": 6388,
      "itious": 6389,
      "itized": 6390,
      "itimate": 6391,
      "itmen": 6392,
      "itals": 6393,
      "itchie": 6394,
      "itched": 6395,
      "itators": 6396,
      "itivity": 6397,
      "itzer": 6398,
      "Ġanch": 6399,
      "Ġanger": 6400,
      "esman": 6401,
      "esity": 6402,
      "esmer": 6403,
      "eshed": 6404,
      "esions": 6405,
      "espre": 6406,
      "esche": 6407,
      "esnais": 6408,
      "Ġoil": 6409,
      "Ġoce": 6410,
      "Ġopt": 6411,
      "Ġoath": 6412,
      "Ġoption": 6413,
      "Ġoeu": 6414,
      "Ġopio": 6415,
      "arri": 6416,
      "aract": 6417,
      "arian": 6418,
      "arren": 6419,
      "arry": 6420,
      "arists": 6421,
      "arade": 6422,
      "armed": 6423,
      "arlet": 6424,
      "argate": 6425,
      "ariation": 6426,
      "Ġcat": 6427,
      "Ġcle": 6428,
      "Ġcal": 6429,
      "Ġcos": 6430,
      "Ġcri": 6431,
      "Ġcate": 6432,
      "Ġcab": 6433,
      "Ġcoc": 6434,
      "Ġcens": 6435,
      "Ġcere": 6436,
      "Ġcream": 6437,
      "Ġcrew": 6438,
      "Ġcars": 6439,
      "Ġcaves": 6440,
      "Ġcatch": 6441,
      "Ġciting": 6442,
      "Ġcovers": 6443,
      "Ġcoura": 6444,
      "Ġcerem": 6445,
      "Ġinad": 6446,
      "Ġinner": 6447,
      "Ġingen": 6448,
      "Ġinequ": 6449,
      "Ġinhib": 6450,
      "Ġinaug": 6451,
      "Ġinherent": 6452,
      "Ġbin": 6453,
      "Ġbar": 6454,
      "Ġbal": 6455,
      "Ġbas": 6456,
      "Ġbent": 6457,
      "Ġbel": 6458,
      "Ġbay": 6459,
      "Ġbord": 6460,
      "Ġbout": 6461,
      "Ġband": 6462,
      "Ġbip": 6463,
      "Ġbound": 6464,
      "Ġbase": 6465,
      "Ġbare": 6466,
      "Ġbere": 6467,
      "Ġbachel": 6468,
      "Ġbars": 6469,
      "Ġbrand": 6470,
      "Ġbored": 6471,
      "Ġbicy": 6472,
      "Ġbought": 6473,
      "Ġbodies": 6474,
      "Ġberates": 6475,
      "Ġbenzod": 6476,
      "Ġborrowing": 6477,
      "inguish": 6478,
      "Ġpot": 6479,
      "Ġpun": 6480,
      "Ġput": 6481,
      "Ġpark": 6482,
      "Ġpath": 6483,
      "Ġpix": 6484,
      "Ġpec": 6485,
      "Ġpaying": 6486,
      "Ġpair": 6487,
      "Ġplease": 6488,
      "Ġpush": 6489,
      "Ġputs": 6490,
      "Ġpanic": 6491,
      "Ġpowers": 6492,
      "Ġpacing": 6493,
      "Ġpapers": 6494,
      "Ġpeace": 6495,
      "Ġpoetic": 6496,
      "Ġpuzz": 6497,
      "Ġpanned": 6498,
      "Ġpitched": 6499,
      "leus": 6500,
      "leav": 6501,
      "leth": 6502,
      "leisrad": 6503,
      "ala": 6504,
      "alu": 6505,
      "alers": 6506,
      "also": 6507,
      "alence": 6508,
      "alian": 6509,
      "alile": 6510,
      "alism": 6511,
      "aliation": 6512,
      "alogram": 6513,
      "algia": 6514,
      "icion": 6515,
      "icent": 6516,
      "icus": 6517,
      "icul": 6518,
      "icem": 6519,
      "ichel": 6520,
      "icrow": 6521,
      "icates": 6522,
      "icians": 6523,
      "icles": 6524,
      "icacy": 6525,
      "Ġhur": 6526,
      "Ġhire": 6527,
      "Ġhour": 6528,
      "Ġhobb": 6529,
      "Ġhip": 6530,
      "Ġhang": 6531,
      "Ġhold": 6532,
      "Ġhair": 6533,
      "Ġharm": 6534,
      "Ġhats": 6535,
      "Ġhidden": 6536,
      "Ġhitting": 6537,
      "Ġhitmen": 6538,
      "Ġdil": 6539,
      "Ġdro": 6540,
      "Ġdim": 6541,
      "Ġdut": 6542,
      "Ġdame": 6543,
      "Ġdile": 6544,
      "Ġdress": 6545,
      "Ġdiversity": 6546,
      "Ġdaring": 6547,
      "Ġdense": 6548,
      "Ġdelt": 6549,
      "Ġdata": 6550,
      "Ġdinner": 6551,
      "Ġdenom": 6552,
      "Ġtouc": 6553,
      "Ġtoile": 6554,
      "Ġtough": 6555,
      "Ġtoug": 6556,
      "Ġtoured": 6557,
      "Ġtomography": 6558,
      "iles": 6559,
      "ilom": 6560,
      "ilst": 6561,
      "ilber": 6562,
      "ilized": 6563,
      "ilty": 6564,
      "ilization": 6565,
      "iliation": 6566,
      "ilitation": 6567,
      "ioned": 6568,
      "Ġmi": 6569,
      "Ġmim": 6570,
      "Ġmun": 6571,
      "Ġmut": 6572,
      "Ġmist": 6573,
      "Ġmud": 6574,
      "Ġmac": 6575,
      "Ġmob": 6576,
      "Ġmend": 6577,
      "Ġmand": 6578,
      "Ġmust": 6579,
      "Ġmild": 6580,
      "Ġmach": 6581,
      "Ġmemento": 6582,
      "Ġmature": 6583,
      "Ġmood": 6584,
      "Ġmalf": 6585,
      "Ġmaps": 6586,
      "Ġmarc": 6587,
      "Ġmole": 6588,
      "Ġmales": 6589,
      "Ġmalle": 6590,
      "Ġmarriage": 6591,
      "Ġmesmer": 6592,
      "Ġmicrow": 6593,
      "omen": 6594,
      "omers": 6595,
      "omain": 6596,
      "omated": 6597,
      "omized": 6598,
      "ompert": 6599,
      "omforting": 6600,
      "ompressed": 6601,
      "asive": 6602,
      "asier": 6603,
      "asively": 6604,
      "asters": 6605,
      "asara": 6606,
      "asionally": 6607,
      "asino": 6608,
      "ĠBen": 6609,
      "ĠBut": 6610,
      "ĠBul": 6611,
      "ĠBow": 6612,
      "ĠBra": 6613,
      "ĠBri": 6614,
      "ĠBore": 6615,
      "ĠBran": 6616,
      "ĠBost": 6617,
      "ĠBirk": 6618,
      "ĠBoy": 6619,
      "ĠBack": 6620,
      "ĠBelf": 6621,
      "ĠBarn": 6622,
      "ĠBook": 6623,
      "ĠBoh": 6624,
      "ĠBund": 6625,
      "ĠBars": 6626,
      "ĠBern": 6627,
      "ĠBelie": 6628,
      "ĠBev": 6629,
      "ĠBiel": 6630,
      "ĠBapt": 6631,
      "ĠBhart": 6632,
      "ĠBarb": 6633,
      "ĠBarc": 6634,
      "ĠBoard": 6635,
      "ĠBiography": 6636,
      "ĠBilly": 6637,
      "ĠBrend": 6638,
      "ĠBrett": 6639,
      "ĠBhut": 6640,
      "ĠBiograp": 6641,
      "ĠByron": 6642,
      "ĠBonfil": 6643,
      "ĠBrecht": 6644,
      "ĠBicent": 6645,
      "ĠBasara": 6646,
      "ĠTay": 6647,
      "ĠTem": 6648,
      "ĠTri": 6649,
      "ĠTell": 6650,
      "ĠTale": 6651,
      "ĠTears": 6652,
      "ĠTower": 6653,
      "ĠTex": 6654,
      "ĠTroy": 6655,
      "ĠTÃ©": 6656,
      "ĠTrent": 6657,
      "ĠTDK": 6658,
      "ĠTerra": 6659,
      "ĠToro": 6660,
      "ĠTitan": 6661,
      "roar": 6662,
      "roence": 6663,
      "roved": 6664,
      "roves": 6665,
      "roxim": 6666,
      "rogate": 6667,
      "roint": 6668,
      "roitly": 6669,
      "imi": 6670,
      "iming": 6671,
      "imited": 6672,
      "iments": 6673,
      "imately": 6674,
      "impro": 6675,
      "imize": 6676,
      "imax": 6677,
      "imposed": 6678,
      "cturn": 6679,
      "enting": 6680,
      "entation": 6681,
      "entry": 6682,
      "entions": 6683,
      "entists": 6684,
      "entrating": 6685,
      "Ġreun": 6686,
      "Ġreth": 6687,
      "Ġreally": 6688,
      "Ġreck": 6689,
      "Ġrenown": 6690,
      "Ġreapp": 6691,
      "Ġrejection": 6692,
      "Ġrework": 6693,
      "Ġrelying": 6694,
      "Ġreason": 6695,
      "Ġreaches": 6696,
      "Ġreduce": 6697,
      "Ġreexam": 6698,
      "Ġrehab": 6699,
      "Ġrejoin": 6700,
      "Ġreinvention": 6701,
      "Ġreanimate": 6702,
      "ela": 6703,
      "els": 6704,
      "elle": 6705,
      "eliv": 6706,
      "elso": 6707,
      "elind": 6708,
      "eloft": 6709,
      "elona": 6710,
      "oured": 6711,
      "ourit": 6712,
      "ouve": 6713,
      "oubl": 6714,
      "ouble": 6715,
      "ougl": 6716,
      "oumin": 6717,
      "Ġaster": 6718,
      "Ġaside": 6719,
      "Ġashes": 6720,
      "Ġasks": 6721,
      "Ġaspects": 6722,
      "Ġaspired": 6723,
      "ola": 6724,
      "olt": 6725,
      "olen": 6726,
      "olis": 6727,
      "oled": 6728,
      "olar": 6729,
      "olun": 6730,
      "olut": 6731,
      "olated": 6732,
      "olved": 6733,
      "olars": 6734,
      "ollo": 6735,
      "olamines": 6736,
      "ollections": 6737,
      "ĠAm": 6738,
      "ĠAct": 6739,
      "ĠAir": 6740,
      "ĠAff": 6741,
      "ĠAthe": 6742,
      "ĠAcad": 6743,
      "ĠAron": 6744,
      "ĠAbut": 6745,
      "ĠAgen": 6746,
      "ĠActor": 6747,
      "ĠAmy": 6748,
      "ĠAvoid": 6749,
      "ĠActors": 6750,
      "ĠAustr": 6751,
      "ĠAMC": 6752,
      "ĠAfric": 6753,
      "ĠAiming": 6754,
      "ĠSan": 6755,
      "ĠSal": 6756,
      "ĠSam": 6757,
      "ĠSun": 6758,
      "ĠSight": 6759,
      "ĠSleep": 6760,
      "ĠSup": 6761,
      "ĠSand": 6762,
      "ĠSome": 6763,
      "ĠSator": 6764,
      "ĠSince": 6765,
      "ĠSense": 6766,
      "ĠSuch": 6767,
      "ĠSequ": 6768,
      "ĠSara": 6769,
      "ĠSky": 6770,
      "ĠSlate": 6771,
      "ĠSupp": 6772,
      "ĠSangar": 6773,
      "ĠSkib": 6774,
      "ĠSzar": 6775,
      "ĠSonja": 6776,
      "ĠSatur": 6777,
      "ĠSilber": 6778,
      "ĠCam": 6779,
      "ĠCow": 6780,
      "ĠCru": 6781,
      "ĠCav": 6782,
      "ĠCov": 6783,
      "ĠCous": 6784,
      "ĠCup": 6785,
      "ĠCour": 6786,
      "ĠCond": 6787,
      "ĠCaus": 6788,
      "ĠCurn": 6789,
      "ĠCry": 6790,
      "ĠCox": 6791,
      "ĠCities": 6792,
      "ĠChest": 6793,
      "ĠCarl": 6794,
      "ĠCÃ©": 6795,
      "ĠCuisine": 6796,
      "ĠCalling": 6797,
      "ĠCoster": 6798,
      "ĠCGI": 6799,
      "ĠCeleb": 6800,
      "ĠCinÃ©": 6801,
      "ĠCasino": 6802,
      "Ġthir": 6803,
      "Ġthick": 6804,
      "igy": 6805,
      "igan": 6806,
      "igent": 6807,
      "igot": 6808,
      "igra": 6809,
      "igate": 6810,
      "igger": 6811,
      "igration": 6812,
      "iggo": 6813,
      "igitators": 6814,
      "aming": 6815,
      "amant": 6816,
      "amire": 6817,
      "ampl": 6818,
      "amarr": 6819,
      "amalu": 6820,
      "stor": 6821,
      "stes": 6822,
      "stid": 6823,
      "stru": 6824,
      "stri": 6825,
      "stered": 6826,
      "stood": 6827,
      "stained": 6828,
      "stories": 6829,
      "starred": 6830,
      "stimul": 6831,
      "stracts": 6832,
      "Ġbeer": 6833,
      "Ġbever": 6834,
      "Ġbeating": 6835,
      "Ġbearing": 6836,
      "Ġbeaut": 6837,
      "ĠDom": 6838,
      "ĠDiv": 6839,
      "ĠDres": 6840,
      "ĠDog": 6841,
      "ĠDall": 6842,
      "ĠDave": 6843,
      "ĠDast": 6844,
      "ĠDale": 6845,
      "ĠDance": 6846,
      "ĠDach": 6847,
      "ĠDays": 6848,
      "ĠDisc": 6849,
      "ĠDood": 6850,
      "ĠDram": 6851,
      "ĠDev": 6852,
      "ĠDann": 6853,
      "ĠDUN": 6854,
      "ĠDwight": 6855,
      "ĠDÃ¼rren": 6856,
      "ĠDonning": 6857,
      "ĠDenis": 6858,
      "ĠDancy": 6859,
      "ĠDarren": 6860,
      "ĠDougl": 6861,
      "oted": 6862,
      "otion": 6863,
      "otation": 6864,
      "otely": 6865,
      "otbl": 6866,
      "otaged": 6867,
      "oteric": 6868,
      "otorsp": 6869,
      "ayover": 6870,
      "ayden": 6871,
      "aynes": 6872,
      "Ġliv": 6873,
      "Ġlun": 6874,
      "Ġligh": 6875,
      "Ġlia": 6876,
      "Ġlure": 6877,
      "Ġlag": 6878,
      "Ġlobb": 6879,
      "Ġland": 6880,
      "Ġlaw": 6881,
      "Ġlover": 6882,
      "Ġlives": 6883,
      "Ġlink": 6884,
      "Ġlying": 6885,
      "Ġlimb": 6886,
      "Ġlovers": 6887,
      "Ġlines": 6888,
      "Ġlaser": 6889,
      "Ġlush": 6890,
      "Ġlyr": 6891,
      "Ġliked": 6892,
      "Ġloads": 6893,
      "Ġlyric": 6894,
      "Ġlonge": 6895,
      "Ġlength": 6896,
      "Ġlesions": 6897,
      "Ġlayover": 6898,
      "Ġet": 6899,
      "Ġeul": 6900,
      "Ġeag": 6901,
      "Ġelected": 6902,
      "Ġeaster": 6903,
      "Ġeconom": 6904,
      "Ġegg": 6905,
      "Ġeye": 6906,
      "Ġeasier": 6907,
      "ilmer": 6908,
      "Ġnor": 6909,
      "Ġnest": 6910,
      "Ġnort": 6911,
      "Ġnob": 6912,
      "Ġnoun": 6913,
      "Ġnice": 6914,
      "Ġnations": 6915,
      "Ġnaps": 6916,
      "Ġnaut": 6917,
      "Ġnatural": 6918,
      "uries": 6919,
      "urally": 6920,
      "ursion": 6921,
      "uriated": 6922,
      "urfaces": 6923,
      "ĠPul": 6924,
      "ĠPop": 6925,
      "ĠPia": 6926,
      "ĠPac": 6927,
      "ĠPort": 6928,
      "ĠPear": 6929,
      "ĠPence": 6930,
      "ĠPast": 6931,
      "ĠPier": 6932,
      "ĠPitt": 6933,
      "ĠProl": 6934,
      "ĠPug": 6935,
      "ĠParl": 6936,
      "ĠPole": 6937,
      "ĠPerson": 6938,
      "ĠPurch": 6939,
      "ĠPaul": 6940,
      "ĠPounce": 6941,
      "ĠPrisoner": 6942,
      "ĠPPW": 6943,
      "ĠPfeif": 6944,
      "ĠPrivate": 6945,
      "ĠPatients": 6946,
      "ĠParade": 6947,
      "ĠPleav": 6948,
      "user": 6949,
      "used": 6950,
      "using": 6951,
      "ushed": 6952,
      "usions": 6953,
      "usually": 6954,
      "Ġforget": 6955,
      "Ġformed": 6956,
      "Ġforgot": 6957,
      "ĠThere": 6958,
      "ĠTheob": 6959,
      "ĠTheater": 6960,
      "ĠThemes": 6961,
      "Ġhere": 6962,
      "Ġheal": 6963,
      "Ġheter": 6964,
      "Ġheight": 6965,
      "Ġherit": 6966,
      "Ġhence": 6967,
      "Ġhealthy": 6968,
      "Ġhesit": 6969,
      "ivor": 6970,
      "ival": 6971,
      "ivist": 6972,
      "ivated": 6973,
      "ivias": 6974,
      "ĠGet": 6975,
      "ĠGill": 6976,
      "ĠGak": 6977,
      "ĠGum": 6978,
      "ĠGab": 6979,
      "ĠGian": 6980,
      "ĠGover": 6981,
      "ĠGib": 6982,
      "ĠGÃ¶": 6983,
      "ĠGreg": 6984,
      "ĠGamb": 6985,
      "ĠGunn": 6986,
      "ĠGrays": 6987,
      "ĠGeor": 6988,
      "ĠGeorge": 6989,
      "ĠGinn": 6990,
      "ĠGAB": 6991,
      "ĠGeoff": 6992,
      "ĠGlas": 6993,
      "ĠGrant": 6994,
      "ĠGeneral": 6995,
      "ĠGalile": 6996,
      "ĠGompert": 6997,
      "ĠGroves": 6998,
      "idate": 6999,
      "idated": 7000,
      "idian": 7001,
      "idley": 7002,
      "iddle": 7003,
      "ung": 7004,
      "unich": 7005,
      "unction": 7006,
      "unging": 7007,
      "unior": 7008,
      "unted": 7009,
      "unique": 7010,
      "untled": 7011,
      "unicated": 7012,
      "unbo": 7013,
      "Ġisland": 7014,
      "Ġisolated": 7015,
      "Ġonto": 7016,
      "termin": 7017,
      "tercept": 7018,
      "chain": 7019,
      "chian": 7020,
      "child": 7021,
      "chained": 7022,
      "charact": 7023,
      "cholamines": 7024,
      "Ġ\"#": 7025,
      "Ġ\"[": 7026,
      "adicated": 7027,
      "adcast": 7028,
      "mand": 7029,
      "manent": 7030,
      "Ġwhy": 7031,
      "Ġwhilst": 7032,
      "pples": 7033,
      "utor": 7034,
      "uting": 7035,
      "utation": 7036,
      "utia": 7037,
      "utally": 7038,
      "utinely": 7039,
      "ĠRon": 7040,
      "ĠRav": 7041,
      "ĠRight": 7042,
      "ĠRant": 7043,
      "ĠRich": 7044,
      "ĠRap": 7045,
      "ĠRobb": 7046,
      "ĠRand": 7047,
      "ĠRoy": 7048,
      "ĠRick": 7049,
      "ĠRimmer": 7050,
      "ĠRosen": 7051,
      "ĠRota": 7052,
      "ĠRutger": 7053,
      "ĠRiste": 7054,
      "ĠRisban": 7055,
      "ĠRitchie": 7056,
      "ĠResnais": 7057,
      "ĠRomain": 7058,
      "ĠRouve": 7059,
      "ĠRamire": 7060,
      "ĠRotbl": 7061,
      "ĠRidley": 7062,
      "ĠMF": 7063,
      "ĠMO": 7064,
      "ĠMr": 7065,
      "ĠMill": 7066,
      "ĠMod": 7067,
      "ĠMich": 7068,
      "ĠMend": 7069,
      "ĠMost": 7070,
      "ĠMater": 7071,
      "ĠMach": 7072,
      "ĠMother": 7073,
      "ĠMarr": 7074,
      "ĠMission": 7075,
      "ĠMount": 7076,
      "ĠMÃ©": 7077,
      "ĠMarch": 7078,
      "ĠMoni": 7079,
      "ĠMaggie": 7080,
      "ĠMDMA": 7081,
      "ĠMTV": 7082,
      "ĠMerger": 7083,
      "ĠMonuments": 7084,
      "ĠMorric": 7085,
      "ĠMedia": 7086,
      "ĠMichel": 7087,
      "ĠMiles": 7088,
      "ĠMasters": 7089,
      "ĠMelind": 7090,
      "ĠMotorsp": 7091,
      "ĠMiddle": 7092,
      "ĠMunich": 7093,
      "ĠNob": 7094,
      "ĠNum": 7095,
      "ĠNok": 7096,
      "ĠNuc": 7097,
      "ĠNick": 7098,
      "ĠNovel": 7099,
      "ĠNathan": 7100,
      "ĠNÃ©": 7101,
      "ĠNiel": 7102,
      "ĠNash": 7103,
      "ĠNik": 7104,
      "ĠNothing": 7105,
      "ĠNoel": 7106,
      "ĠNREM": 7107,
      "ĠNgá": 7108,
      "ĠNydia": 7109,
      "irer": 7110,
      "iring": 7111,
      "ironment": 7112,
      "hern": 7113,
      "hers": 7114,
      "erse": 7115,
      "ersed": 7116,
      "ersing": 7117,
      "ula": 7118,
      "ulent": 7119,
      "ully": 7120,
      "ulpt": 7121,
      "ulary": 7122,
      "ulant": 7123,
      "ulations": 7124,
      "uloid": 7125,
      "ulner": 7126,
      "ulah": 7127,
      "ulses": 7128,
      "uliar": 7129,
      "ĠIll": 7130,
      "ĠIrel": 7131,
      "ĠIcel": 7132,
      "ĠICS": 7133,
      "ĠIGN": 7134,
      "Ġstar": 7135,
      "Ġstay": 7136,
      "Ġstif": 7137,
      "Ġstark": 7138,
      "Ġstag": 7139,
      "Ġstren": 7140,
      "Ġstake": 7141,
      "Ġstream": 7142,
      "Ġstates": 7143,
      "Ġstrict": 7144,
      "Ġstressed": 7145,
      "Ġstances": 7146,
      "Ġsteel": 7147,
      "Ġstrain": 7148,
      "Ġstrays": 7149,
      "Ġstaged": 7150,
      "Ġstyl": 7151,
      "Ġstimul": 7152,
      "Ġstalling": 7153,
      "Ġstarring": 7154,
      "Ġstyles": 7155,
      "Ġstolen": 7156,
      "ĠHan": 7157,
      "ĠHist": 7158,
      "ĠHem": 7159,
      "ĠHop": 7160,
      "ĠHav": 7161,
      "ĠHend": 7162,
      "ĠHand": 7163,
      "ĠHorn": 7164,
      "ĠHug": 7165,
      "ĠHope": 7166,
      "ĠHines": 7167,
      "ĠHamb": 7168,
      "ĠHills": 7169,
      "ĠHailey": 7170,
      "ĠHann": 7171,
      "ĠHorne": 7172,
      "ĠHedy": 7173,
      "ĠHarring": 7174,
      "ĠHBO": 7175,
      "ĠHaas": 7176,
      "ĠHayden": 7177,
      "epy": 7178,
      "ĠWing": 7179,
      "ĠWet": 7180,
      "ĠWard": 7181,
      "ĠWitle": 7182,
      "ĠWrit": 7183,
      "ĠWong": 7184,
      "ĠWign": 7185,
      "ĠWhed": 7186,
      "ĠWise": 7187,
      "ĠWired": 7188,
      "ĠWood": 7189,
      "ĠWads": 7190,
      "ĠWilding": 7191,
      "ĠWuert": 7192,
      "ĠWorzel": 7193,
      "ĠWomen": 7194,
      "ĠWaynes": 7195,
      "isting": 7196,
      "istance": 7197,
      "istently": 7198,
      "oween": 7199,
      "ĠJen": 7200,
      "ĠJim": 7201,
      "ĠJak": 7202,
      "ĠJord": 7203,
      "ĠJod": 7204,
      "ĠJoy": 7205,
      "ĠJust": 7206,
      "ĠJake": 7207,
      "ĠJoh": 7208,
      "ĠJours": 7209,
      "ĠJenn": 7210,
      "ĠJoss": 7211,
      "ĠJai": 7212,
      "ĠJerem": 7213,
      "ĠJournal": 7214,
      "ĠJensen": 7215,
      "ĠJunior": 7216,
      "eted": 7217,
      "etres": 7218,
      "etters": 7219,
      "etched": 7220,
      "etitor": 7221,
      "ectac": 7222,
      "esture": 7223,
      "employ": 7224,
      "emales": 7225,
      "emiology": 7226,
      "ĠFu": 7227,
      "ĠFat": 7228,
      "ĠFight": 7229,
      "ĠFear": 7230,
      "ĠFich": 7231,
      "ĠFell": 7232,
      "ĠFall": 7233,
      "ĠFire": 7234,
      "ĠFour": 7235,
      "ĠFunk": 7236,
      "ĠFather": 7237,
      "ĠFinal": 7238,
      "ĠFair": 7239,
      "ĠFlo": 7240,
      "ĠFried": 7241,
      "ĠFAS": 7242,
      "ĠFerm": 7243,
      "ĠFaden": 7244,
      "ĠFellow": 7245,
      "ĠFoo": 7246,
      "ĠFinn": 7247,
      "ĠFisher": 7248,
      "ĠFBI": 7249,
      "ĠFaust": 7250,
      "ĠFeig": 7251,
      "ĠFoley": 7252,
      "ĠFinch": 7253,
      "ĠFederation": 7254,
      "ĠFarri": 7255,
      "ĠFemales": 7256,
      "ĠOP": 7257,
      "ĠOpt": 7258,
      "ĠOost": 7259,
      "ĠOram": 7260,
      "ĠOps": 7261,
      "ĠOdys": 7262,
      "ĠOsam": 7263,
      "ĠOxford": 7264,
      "ighbour": 7265,
      "ĠBatplane": 7266,
      "ĠBatsuit": 7267,
      "opter": 7268,
      "opaus": 7269,
      "opted": 7270,
      "osives": 7271,
      "iazep": 7272,
      "racy": 7273,
      "razole": 7274,
      "Ġconning": 7275,
      "Ġconsp": 7276,
      "Ġconsequ": 7277,
      "Ġcongress": 7278,
      "Ġconjuring": 7279,
      "vering": 7280,
      "Ġ12": 7281,
      "Ġgain": 7282,
      "Ġgran": 7283,
      "Ġgap": 7284,
      "Ġgather": 7285,
      "Ġgrow": 7286,
      "Ġgrew": 7287,
      "Ġgrossing": 7288,
      "Ġgrand": 7289,
      "Ġglo": 7290,
      "Ġgrim": 7291,
      "Ġglob": 7292,
      "Ġgluc": 7293,
      "Ġgym": 7294,
      "Ġgunbo": 7295,
      "Ġgesture": 7296,
      "illing": 7297,
      "illance": 7298,
      "illene": 7299,
      "illusion": 7300,
      "illerm": 7301,
      "Ġally": 7302,
      "Ġalum": 7303,
      "Ġallud": 7304,
      "Ġalters": 7305,
      "Ġalto": 7306,
      "Ġaltered": 7307,
      "Ġalien": 7308,
      "Ġalerts": 7309,
      "Ġalpine": 7310,
      "Ġalways": 7311,
      "Ġalread": 7312,
      "avour": 7313,
      "avoy": 7314,
      "avement": 7315,
      "available": 7316,
      "2020": 7317,
      "2017": 7318,
      "2023": 7319,
      "akers": 7320,
      "akatray": 7321,
      "rien": 7322,
      "rific": 7323,
      "riete": 7324,
      "rifying": 7325,
      "riela": 7326,
      "ords": 7327,
      "udulent": 7328,
      "ĠKirk": 7329,
      "ĠKather": 7330,
      "ĠKick": 7331,
      "ĠKnown": 7332,
      "ĠKev": 7333,
      "ĠKof": 7334,
      "ĠKimb": 7335,
      "ĠKnowledge": 7336,
      "ĠKli": 7337,
      "ĠKerm": 7338,
      "ĠKatie": 7339,
      "ĠKhan": 7340,
      "ĠKnop": 7341,
      "ĠKimi": 7342,
      "ĠKilmer": 7343,
      "ĠKung": 7344,
      "reshing": 7345,
      "resolution": 7346,
      "respond": 7347,
      "ĠList": 7348,
      "ĠLind": 7349,
      "ĠLong": 7350,
      "ĠLand": 7351,
      "ĠLock": 7352,
      "ĠLang": 7353,
      "ĠLenn": 7354,
      "ĠLike": 7355,
      "ĠLope": 7356,
      "ĠLittle": 7357,
      "ĠLille": 7358,
      "ĠLaden": 7359,
      "ĠLieutenant": 7360,
      "ĠLigue": 7361,
      "ĠLaMarr": 7362,
      "ĠLloy": 7363,
      "ĠLister": 7364,
      "ĠLarry": 7365,
      "ĠLimited": 7366,
      "ĠLamarr": 7367,
      "ĠLetters": 7368,
      "ĠLavoy": 7369,
      "iff": 7370,
      "ift": 7371,
      "ifer": 7372,
      "iform": 7373,
      "iferation": 7374,
      "ifully": 7375,
      "Ġcommander": 7376,
      "Ġcomedy": 7377,
      "Ġcommercial": 7378,
      "Ġdeterm": 7379,
      "Ġdevise": 7380,
      "Ġdetermin": 7381,
      "Ġsue": 7382,
      "Ġsuite": 7383,
      "Ġsums": 7384,
      "Ġsucceed": 7385,
      "Ġsustained": 7386,
      "pty": 7387,
      "pton": 7388,
      "ĠNolans": 7389,
      "Ġ(\"": 7390,
      "Ġ2030": 7391,
      "Ġsea": 7392,
      "Ġsex": 7393,
      "Ġsees": 7394,
      "Ġseance": 7395,
      "Ġselect": 7396,
      "Ġseek": 7397,
      "Ġsearc": 7398,
      "Ġproced": 7399,
      "Ġproof": 7400,
      "Ġproxim": 7401,
      "Ġprolet": 7402,
      "Ġprovin": 7403,
      "Ġproceed": 7404,
      "Ġprovok": 7405,
      "Ġproxy": 7406,
      "cience": 7407,
      "ache": 7408,
      "acre": 7409,
      "acity": 7410,
      "acated": 7411,
      "essed": 7412,
      "essay": 7413,
      "essant": 7414,
      "essels": 7415,
      "ortly": 7416,
      "orticot": 7417,
      "obiography": 7418,
      "orence": 7419,
      "negating": 7420,
      "ĠEion": 7421,
      "ĠEight": 7422,
      "ĠEqu": 7423,
      "ĠEast": 7424,
      "ĠEarn": 7425,
      "ĠEach": 7426,
      "ĠEven": 7427,
      "ĠEvery": 7428,
      "ĠEarl": 7429,
      "ĠEty": 7430,
      "ĠEpid": 7431,
      "ĠEconom": 7432,
      "ĠEinstein": 7433,
      "ĠEss": 7434,
      "ĠEyed": 7435,
      "ĠEstes": 7436,
      "Ġchain": 7437,
      "Ġchase": 7438,
      "Ġchron": 7439,
      "Ġchair": 7440,
      "Ġchicken": 7441,
      "Ġchange": 7442,
      "Ġchilling": 7443,
      "Ġathlet": 7444,
      "ĠInc": 7445,
      "ĠInterstell": 7446,
      "ĠIntell": 7447,
      "ĠInitial": 7448,
      "ĠIncreased": 7449,
      "ĠInfus": 7450,
      "ĠIntent": 7451,
      "early": 7452,
      "ards": 7453,
      "ardian": 7454,
      "ardless": 7455,
      "arked": 7456,
      "Ġleaps": 7457,
      "Ġleaf": 7458,
      "Ġlexic": 7459,
      "odes": 7460,
      "odts": 7461,
      "odied": 7462,
      "Ġvary": 7463,
      "Ġvap": 7464,
      "Ġvial": 7465,
      "Ġvogue": 7466,
      "Ġvote": 7467,
      "Ġviable": 7468,
      "Ġvariety": 7469,
      "Ġvault": 7470,
      "Ġvinyl": 7471,
      "Ġvanishes": 7472,
      "Ġvariation": 7473,
      "Ġvolun": 7474,
      "Ġvulner": 7475,
      "Ġvacated": 7476,
      "Ġvessels": 7477,
      "redoubl": 7478,
      "Ġexists": 7479,
      "Ġextern": 7480,
      "Ġexclus": 7481,
      "Ġexiled": 7482,
      "Ġexcomm": 7483,
      "Ġexiling": 7484,
      "Ġexistentialism": 7485,
      "Ġexhilar": 7486,
      "Ġ1915": 7487,
      "Ġ1937": 7488,
      "Ġ1904": 7489,
      "Ġ1927": 7490,
      "Ġ1925": 7491,
      "arynx": 7492,
      "antime": 7493,
      "antial": 7494,
      "antically": 7495,
      "ections": 7496,
      "ounced": 7497,
      "ogical": 7498,
      "ogies": 7499,
      "ogger": 7500,
      "ogene": 7501,
      "umed": 7502,
      "umption": 7503,
      "umph": 7504,
      "umbia": 7505,
      "Ġsleeps": 7506,
      "Ġsleeper": 7507,
      "artan": 7508,
      "arted": 7509,
      "arting": 7510,
      "ĠOppenheimerin": 7511,
      "Ġincrim": 7512,
      "Ġincidents": 7513,
      "Ġinconclusive": 7514,
      "Ġincessant": 7515,
      "hylp": 7516,
      "Ġoroph": 7517,
      "abre": 7518,
      "ably": 7519,
      "abody": 7520,
      "ables": 7521,
      "abby": 7522,
      "abdom": 7523,
      "abeth": 7524,
      "abaj": 7525,
      "abulary": 7526,
      "thouse": 7527,
      "thrill": 7528,
      "Ġunve": 7529,
      "Ġunident": 7530,
      "Ġunaw": 7531,
      "Ġunapp": 7532,
      "Ġunset": 7533,
      "Ġunto": 7534,
      "Ġunits": 7535,
      "Ġunreg": 7536,
      "Ġunique": 7537,
      "Ġunpre": 7538,
      "Ġunsup": 7539,
      "Ġunequiv": 7540,
      "Ġunrelated": 7541,
      "Ġunnamed": 7542,
      "Ġunsuc": 7543,
      "Ġunusually": 7544,
      "Ġunemploy": 7545,
      "Ġunavailable": 7546,
      "Ġuniform": 7547,
      "okie": 7548,
      "okingly": 7549,
      "ovative": 7550,
      "rano": 7551,
      "rance": 7552,
      "ranking": 7553,
      "Ġdishes": 7554,
      "Ġdisruption": 7555,
      "Ġdisgu": 7556,
      "Ġdisbelie": 7557,
      "Ġdisdains": 7558,
      "Ġdisgr": 7559,
      "Ġdisillusion": 7560,
      "elling": 7561,
      "ellaneous": 7562,
      "ellbinding": 7563,
      "ĠAnne": 7564,
      "ĠAnother": 7565,
      "ĠAnxiety": 7566,
      "ĠAnna": 7567,
      "ĠAnsah": 7568,
      "agh": 7569,
      "ages": 7570,
      "aging": 7571,
      "Ġworn": 7572,
      "Ġworse": 7573,
      "Ġworrying": 7574,
      "allow": 7575,
      "allere": 7576,
      "ievers": 7577,
      "ieWire": 7578,
      "irey": 7579,
      "Ġkerke": 7580,
      "Ġkangar": 7581,
      "Ġkilom": 7582,
      "playing": 7583,
      "Ġshame": 7584,
      "Ġship": 7585,
      "Ġshaken": 7586,
      "Ġshows": 7587,
      "Ġsharing": 7588,
      "Ġshove": 7589,
      "Ġshadow": 7590,
      "Ġshoes": 7591,
      "Ġshabby": 7592,
      "Ġshallow": 7593,
      "ĠUK": 7594,
      "ĠUeh": 7595,
      "ĠUNES": 7596,
      "ĠUpon": 7597,
      "ĠChun": 7598,
      "ĠChris": 7599,
      "ĠChang": 7600,
      "ĠChronic": 7601,
      "ĠChaz": 7602,
      "ĠChurch": 7603,
      "ĠChief": 7604,
      "ĠChigot": 7605,
      "actic": 7606,
      "actured": 7607,
      "uces": 7608,
      "ucchel": 7609,
      "ending": 7610,
      "endid": 7611,
      "enditure": 7612,
      "Ġploy": 7613,
      "Ġplans": 7614,
      "Ġplaced": 7615,
      "Ġplatin": 7616,
      "Ġplaces": 7617,
      "Ġplanted": 7618,
      "Ġplunging": 7619,
      "quial": 7620,
      "querading": 7621,
      "ocre": 7622,
      "ocol": 7623,
      "ocide": 7624,
      "ocally": 7625,
      "ochem": 7626,
      "ocative": 7627,
      "ocuous": 7628,
      "ocorticot": 7629,
      "thers": 7630,
      "ameter": 7631,
      "ameters": 7632,
      "Ġintens": 7633,
      "Ġintric": 7634,
      "Ġintestinal": 7635,
      "apy": 7636,
      "apest": 7637,
      "rise": 7638,
      "risk": 7639,
      "Ġusers": 7640,
      "Ġusual": 7641,
      "ertise": 7642,
      "ertained": 7643,
      "ertones": 7644,
      "erturb": 7645,
      "ostic": 7646,
      "upy": 7647,
      "ource": 7648,
      "ourced": 7649,
      "ourney": 7650,
      "derdale": 7651,
      "Ġabund": 7652,
      "Ġabrupt": 7653,
      "Ġabla": 7654,
      "Ġabilities": 7655,
      "Ġabbre": 7656,
      "Ġabstracts": 7657,
      "Ġapply": 7658,
      "Ġapparen": 7659,
      "Ġappla": 7660,
      "Ġappreci": 7661,
      "Ġreside": 7662,
      "Ġresolution": 7663,
      "Ġresurg": 7664,
      "Ġresolved": 7665,
      "Ġresurfaces": 7666,
      "Ġresistance": 7667,
      "Ġresource": 7668,
      "iance": 7669,
      "astical": 7670,
      "ĠHead": 7671,
      "ĠHealth": 7672,
      "ĠHeinar": 7673,
      "onditional": 7674,
      "Ġnegl": 7675,
      "Ġneck": 7676,
      "Ġneurol": 7677,
      "Ġneighbour": 7678,
      "Ġcomparing": 7679,
      "Ġcomparis": 7680,
      "Ġcomprehen": 7681,
      "Ġcompassion": 7682,
      "Ġcompanies": 7683,
      "Ġcomprised": 7684,
      "Ġcompetitor": 7685,
      "Ġcompelling": 7686,
      "Ġ2014": 7687,
      "ffrey": 7688,
      "ffiti": 7689,
      "inds": 7690,
      "indness": 7691,
      "veillance": 7692,
      "Ġimplic": 7693,
      "Ġimplicated": 7694,
      "ineering": 7695,
      "ultz": 7696,
      "ulted": 7697,
      "ultants": 7698,
      "renic": 7699,
      "rents": 7700,
      "renowned": 7701,
      "renocorticot": 7702,
      "Ġscans": 7703,
      "Ġscarecrow": 7704,
      "Ġscores": 7705,
      "Ġscuff": 7706,
      "Ġsculpt": 7707,
      "unkerke": 7708,
      "Ġcontained": 7709,
      "Ġcontends": 7710,
      "Ġcontacted": 7711,
      "Ġcontrast": 7712,
      "Ġroom": 7713,
      "Ġroad": 7714,
      "Ġrock": 7715,
      "Ġroles": 7716,
      "Ġroll": 7717,
      "Ġroutes": 7718,
      "Ġrolled": 7719,
      "Ġroutinely": 7720,
      "Ġrookie": 7721,
      "Ġtrap": 7722,
      "Ġtract": 7723,
      "Ġtrains": 7724,
      "Ġtraps": 7725,
      "Ġtragic": 7726,
      "sey": 7727,
      "seille": 7728,
      "Ġrich": 7729,
      "Ġride": 7730,
      "Ġrays": 7731,
      "Ġrival": 7732,
      "Ġteasing": 7733,
      "Ġtext": 7734,
      "Ġteenage": 7735,
      "andres": 7736,
      "androu": 7737,
      "Ġpolicem": 7738,
      "ristopher": 7739,
      "Ġactions": 7740,
      "Ġactual": 7741,
      "Ġactors": 7742,
      "Ġactigra": 7743,
      "Ġpreced": 7744,
      "Ġpregn": 7745,
      "Ġprecise": 7746,
      "Ġpreclud": 7747,
      "Ġprefers": 7748,
      "Ġprestid": 7749,
      "ressant": 7750,
      "Ġsecure": 7751,
      "izon": 7752,
      "izes": 7753,
      "izations": 7754,
      "izabeth": 7755,
      "Ġarc": 7756,
      "Ġarmed": 7757,
      "Ġarmy": 7758,
      "Ġarrog": 7759,
      "Ġarmored": 7760,
      "Ġarmor": 7761,
      "Ġarthouse": 7762,
      "ictor": 7763,
      "icting": 7764,
      "ĠChristina": 7765,
      "ipation": 7766,
      "peare": 7767,
      "perial": 7768,
      "perform": 7769,
      "perfect": 7770,
      "Ġ2001": 7771,
      "Ġ2004": 7772,
      "Ġ2009": 7773,
      "TheFire": 7774,
      "Ġweak": 7775,
      "Ġweaves": 7776,
      "Ġwealthy": 7777,
      "Ġwheel": 7778,
      "Ġwhenever": 7779,
      "Ġreleasing": 7780,
      "Ġreleases": 7781,
      "ĠUnivers": 7782,
      "ĠUncomm": 7783,
      "ĠUnchained": 7784,
      "bluep": 7785,
      "velt": 7786,
      "ĠSteen": 7787,
      "ĠStoker": 7788,
      "ĠStock": 7789,
      "ĠStrange": 7790,
      "ĠStreet": 7791,
      "ĠStrath": 7792,
      "ĠStuart": 7793,
      "ĠStarting": 7794,
      "Ġcharm": 7795,
      "Ġcharge": 7796,
      "Ġcharges": 7797,
      "Ġthemed": 7798,
      "Ġthematise": 7799,
      "ĠAlon": 7800,
      "ĠAlain": 7801,
      "ĠAlice": 7802,
      "ĠAlong": 7803,
      "ĠAllus": 7804,
      "ĠAlbre": 7805,
      "ĠAltered": 7806,
      "igned": 7807,
      "Ġnote": 7808,
      "Ġnotes": 7809,
      "Ġnotice": 7810,
      "Ġnoticed": 7811,
      "Ġallies": 7812,
      "Ġallied": 7813,
      "Ġallows": 7814,
      "Ġalliance": 7815,
      "Ġupset": 7816,
      "Ġupcom": 7817,
      "Ġupdated": 7818,
      "Ġuproar": 7819,
      "Ġcancel": 7820,
      "Ġcancelled": 7821,
      "Ġcannons": 7822,
      "bery": 7823,
      "berger": 7824,
      "berness": 7825,
      "berator": 7826,
      "ferences": 7827,
      "ferring": 7828,
      "ustice": 7829,
      "ustries": 7830,
      "onscious": 7831,
      "Ġoverly": 7832,
      "Ġovernight": 7833,
      "Ġoverturned": 7834,
      "Ġoverdose": 7835,
      "Ġoverpowers": 7836,
      "Ġoverwhel": 7837,
      "Ġoveranal": 7838,
      "Ġoverstimul": 7839,
      "Ġoverplaying": 7840,
      "Ġparted": 7841,
      "Ġparting": 7842,
      "Ġpartly": 7843,
      "Ġparticip": 7844,
      "Ġpartisan": 7845,
      "Ġdescent": 7846,
      "Ġdesperate": 7847,
      "Ġattract": 7848,
      "Ġattitude": 7849,
      "Ġattentions": 7850,
      "ounding": 7851,
      "hysicists": 7852,
      "Ġmanuf": 7853,
      "Ġmanifest": 7854,
      "Ġmanagement": 7855,
      "Ġmanhun": 7856,
      "ĠRoberts": 7857,
      "ĠRoboCop": 7858,
      "Insomnia": 7859,
      "Inshe": 7860,
      "Increased": 7861,
      "India": 7862,
      "Intercept": 7863,
      "ĠYour": 7864,
      "ĠYleisrad": 7865,
      "Ġaftermath": 7866,
      "ophers": 7867,
      "rayed": 7868,
      "raying": 7869,
      "enson": 7870,
      "ensions": 7871,
      "ensemble": 7872,
      "ensitivity": 7873,
      "Ġsoft": 7874,
      "Ġsoothing": 7875,
      "icks": 7876,
      "icking": 7877,
      "ickly": 7878,
      "ĠMann": 7879,
      "ĠManifest": 7880,
      "ĠManagement": 7881,
      "ĠEnough": 7882,
      "ĠEnric": 7883,
      "ĠEnergy": 7884,
      "ĠEngel": 7885,
      "ĠEnnio": 7886,
      "ĠAnglo": 7887,
      "blematic": 7888,
      "inalizing": 7889,
      "Ġfirstly": 7890,
      "Ġperception": 7891,
      "Ġperpet": 7892,
      "Ġpermanent": 7893,
      "Ġemission": 7894,
      "Ġemulating": 7895,
      "Ġeminent": 7896,
      "Ġempty": 7897,
      "Ġemblematic": 7898,
      "Ġherbs": 7899,
      "Ġherald": 7900,
      "Ġadmin": 7901,
      "Ġadvanced": 7902,
      "Ġadjunct": 7903,
      "Ġadvoc": 7904,
      "Ġadroitly": 7905,
      "Ġadamant": 7906,
      "Ġadopted": 7907,
      "Ġadrenocorticot": 7908,
      "Ġaggress": 7909,
      "Ġclout": 7910,
      "Ġclose": 7911,
      "Ġclues": 7912,
      "Ġclock": 7913,
      "Ġclass": 7914,
      "Ġclash": 7915,
      "Ġcloses": 7916,
      "Ġclothing": 7917,
      "Ġclub": 7918,
      "Ġclouds": 7919,
      "Ġclimax": 7920,
      "Ġstorylin": 7921,
      "ribner": 7922,
      "ributor": 7923,
      "theless": 7924,
      "Ġcrater": 7925,
      "Ġcrash": 7926,
      "Ġinfection": 7927,
      "Ġinfring": 7928,
      "Ġinfinite": 7929,
      "Ġinfuriated": 7930,
      "ĠItalian": 7931,
      "ublic": 7932,
      "Ġotherworld": 7933,
      "Ġpersons": 7934,
      "osevelt": 7935,
      "duinkerke": 7936,
      "Ġaccents": 7937,
      "Ġaccidents": 7938,
      "Ġaccolades": 7939,
      "Ġcommission": 7940,
      "Ġimpress": 7941,
      "Ġimpression": 7942,
      "Ġimpulsive": 7943,
      "Ġimprint": 7944,
      "Ġimpulses": 7945,
      "Ġimperturb": 7946,
      "Ġcharacterized": 7947,
      "Ġcharacterised": 7948,
      "gled": 7949,
      "gliem": 7950,
      "Ġenorm": 7951,
      "Ġenrol": 7952,
      "Ġenhances": 7953,
      "Ġenmities": 7954,
      "Ġenables": 7955,
      "Ġinterven": 7956,
      "Ġintersp": 7957,
      "Ġinterrupt": 7958,
      "Ġinterchange": 7959,
      "Ġinternet": 7960,
      "Ġinteractive": 7961,
      "Ġinterpret": 7962,
      "Ġdirecting": 7963,
      "Ġdirectly": 7964,
      "Ġstudios": 7965,
      "Ġgoose": 7966,
      "aways": 7967,
      "Ġdoctors": 7968,
      "rones": 7969,
      "ronomers": 7970,
      "tek": 7971,
      "tech": 7972,
      "teered": 7973,
      "teenth": 7974,
      "Ġsailing": 7975,
      "Ġsauce": 7976,
      "Ġoutlaw": 7977,
      "Ġoutlined": 7978,
      "Ġoutlook": 7979,
      "Ġcoq": 7980,
      "Ġcoffe": 7981,
      "Ġcoercion": 7982,
      "Ġcovering": 7983,
      "Ġpresence": 7984,
      "Ġpresided": 7985,
      "Ġpreserv": 7986,
      "Ġpreserved": 7987,
      "Ġpresumed": 7988,
      "ildings": 7989,
      "Ġjet": 7990,
      "Ġjudge": 7991,
      "Ġjournal": 7992,
      "Ġjoins": 7993,
      "Ġjokingly": 7994,
      "Ġjourney": 7995,
      "Ġsymptom": 7996,
      "Ġsymp": 7997,
      "Ġsymbol": 7998,
      "Ġsynced": 7999,
      "Ġwrites": 8000,
      "Ġwriters": 8001,
      "Ġwritings": 8002,
      "Ġpublish": 8003,
      "ĠBlogger": 8004,
      "Ġbeta": 8005,
      "Ġbetrays": 8006,
      "Ġbetraying": 8007,
      "iversary": 8008,
      "ĠGhost": 8009,
      "Ġplays": 8010,
      "Ġplayful": 8011,
      "Ġplayboy": 8012,
      "Ġspy": 8013,
      "Ġspins": 8014,
      "Ġspree": 8015,
      "Ġspends": 8016,
      "Ġspinning": 8017,
      "Ġspills": 8018,
      "Ġspoofs": 8019,
      "Ġspectac": 8020,
      "Ġspartan": 8021,
      "Ġspellbinding": 8022,
      "Ġsprayed": 8023,
      "Ġcastle": 8024,
      "Ġblend": 8025,
      "Ġblue": 8026,
      "Ġblink": 8027,
      "Ġblonde": 8028,
      "Ġblatant": 8029,
      "Ġblaming": 8030,
      "Ġblindness": 8031,
      "Ġrecently": 8032,
      "Ġreclus": 8033,
      "Ġrecreation": 8034,
      "Ġrecursion": 8035,
      "Ġundercover": 8036,
      "Ġunderrated": 8037,
      "Ġunderwent": 8038,
      "Ġunderreport": 8039,
      "Ġunderstood": 8040,
      "Ġunderused": 8041,
      "Ġunderperform": 8042,
      "ĠNewark": 8043,
      "ĠNewton": 8044,
      "ĠNewmark": 8045,
      "fulness": 8046,
      "gery": 8047,
      "venir": 8048,
      "Ġdepressed": 8049,
      "Ġdepends": 8050,
      "Ġdepicts": 8051,
      "Ġdeparted": 8052,
      "Ġdepressant": 8053,
      "ĠThus": 8054,
      "ĠThÃ¡": 8055,
      "ĠThrones": 8056,
      "Ġrelies": 8057,
      "Ġrelied": 8058,
      "Ġrelates": 8059,
      "Ġrelatives": 8060,
      "Ġrelatively": 8061,
      "Ġretold": 8062,
      "Ġretaliation": 8063,
      "ĠScare": 8064,
      "ĠScors": 8065,
      "ĠScenes": 8066,
      "ĠScarlet": 8067,
      "ĠScribner": 8068,
      "Ġgenius": 8069,
      "Ġgenetic": 8070,
      "Ġgenocide": 8071,
      "ĠLeft": 8072,
      "ĠLeices": 8073,
      "ĠLewis": 8074,
      "Ġdecide": 8075,
      "Ġdecoy": 8076,
      "Ġdecaying": 8077,
      "Ġdecrying": 8078,
      "Ġdecreased": 8079,
      "Ġdeciding": 8080,
      "Ġdecrypted": 8081,
      "Ġdeclined": 8082,
      "Ġdeclared": 8083,
      "Ġkiller": 8084,
      "Ġindie": 8085,
      "Ġindef": 8086,
      "Ġindicated": 8087,
      "Ġposed": 8088,
      "Ġposes": 8089,
      "Ġdreamed": 8090,
      "Ġmeals": 8091,
      "Ġmeeting": 8092,
      "Ġmeanwhile": 8093,
      "Ġmeantime": 8094,
      "Ġmostly": 8095,
      "Ġnovels": 8096,
      "Ġnovelist": 8097,
      "Ġnovelty": 8098,
      "Ġsubtle": 8099,
      "ĠAndroid": 8100,
      "ĠAndrÃ©": 8101,
      "Ġpersonally": 8102,
      "Ġpersonality": 8103,
      "Ġpersonified": 8104,
      "cribed": 8105,
      "Ġtrigger": 8106,
      "Ġtrivias": 8107,
      "Ġmoves": 8108,
      "Ġmoviem": 8109,
      "akenly": 8110,
      "Ġperfect": 8111,
      "Ġperformer": 8112,
      "Ġportraying": 8113,
      "Ġportrayals": 8114,
      "ganizations": 8115,
      "Ġ25": 8116,
      "Ġ28": 8117,
      "Ġ210": 8118,
      "Ġ297": 8119,
      "Ġ272": 8120,
      "Ġawaren": 8121,
      "Ġphone": 8122,
      "Ġphilant": 8123,
      "Ġpharmacologist": 8124,
      "ĠArnold": 8125,
      "Ġnucleus": 8126,
      "Ġconsists": 8127,
      "Ġconscious": 8128,
      "Ġconsistent": 8129,
      "Ġconserve": 8130,
      "Ġconsistently": 8131,
      "Ġconscience": 8132,
      "Ġconsulted": 8133,
      "Ġdiscount": 8134,
      "Ġdiscreet": 8135,
      "Ġdiscomforting": 8136,
      "Ġdiscards": 8137,
      "Ġdescribe": 8138,
      "Ġdescribes": 8139,
      "ĠEntertain": 8140,
      "eches": 8141,
      "philos": 8142,
      "phalogram": 8143,
      "Ġidealism": 8144,
      "Ġidentical": 8145,
      "Ġidentities": 8146,
      "Ġidentify": 8147,
      "anges": 8148,
      "angry": 8149,
      "angulation": 8150,
      "Ġinstincts": 8151,
      "Ġpowering": 8152,
      "otherapy": 8153,
      "Ġexpress": 8154,
      "Ġexpense": 8155,
      "Ġexpands": 8156,
      "Ġexposes": 8157,
      "Ġexpenditure": 8158,
      "Ġexpertise": 8159,
      "Ġinfluences": 8160,
      "Ġreturned": 8161,
      "1970": 8162,
      "1972": 8163,
      "1977": 8164,
      "1998": 8165,
      "Ġquiet": 8166,
      "Ġquotation": 8167,
      "Ġquickly": 8168,
      "atrice": 8169,
      "isioning": 8170,
      "Ġsomewh": 8171,
      "Ġsomehow": 8172,
      "Ġcremated": 8173,
      "Ġcreepy": 8174,
      "Ġdistorted": 8175,
      "Ġdistinction": 8176,
      "Ġdistinguish": 8177,
      "Ġdistributor": 8178,
      "Ġmedia": 8179,
      "Ġmetal": 8180,
      "Ġmethylp": 8181,
      "Ġrealise": 8182,
      "Ġrealism": 8183,
      "Ġrealizing": 8184,
      "ĠMurdo": 8185,
      "cessful": 8186,
      "Ġ31": 8187,
      "Ġ35": 8188,
      "Ġ372": 8189,
      "Ġ343": 8190,
      "ĠVal": 8191,
      "ĠVoid": 8192,
      "ĠVerg": 8193,
      "ĠVarious": 8194,
      "ĠVariety": 8195,
      "ĠVincent": 8196,
      "ĠViggo": 8197,
      "ĠVillene": 8198,
      "ĠVallere": 8199,
      "ĠVictor": 8200,
      "Ġsetup": 8201,
      "Ġsettings": 8202,
      "Ġcorpor": 8203,
      "Ġcorporeal": 8204,
      "Ġcorrect": 8205,
      "Ġcorrespond": 8206,
      "Ġinvites": 8207,
      "Ġinvitation": 8208,
      "Ġinvasive": 8209,
      "Ġbrood": 8210,
      "Ġmodified": 8211,
      "Ġmoderated": 8212,
      "Ġmodaf": 8213,
      "Ġrevised": 8214,
      "Ġrevital": 8215,
      "Ġreverse": 8216,
      "Ġreceives": 8217,
      "Ġreceiving": 8218,
      "akespeare": 8219,
      "Ġproducts": 8220,
      "odying": 8221,
      "Ġpublicity": 8222,
      "cedented": 8223,
      "ibald": 8224,
      "synchron": 8225,
      "Ġraces": 8226,
      "Ġraising": 8227,
      "Ġrapid": 8228,
      "henidate": 8229,
      "Ġflight": 8230,
      "Ġflour": 8231,
      "Ġflood": 8232,
      "Ġflair": 8233,
      "Ġflash": 8234,
      "Ġflipp": 8235,
      "Ġflats": 8236,
      "Ġflips": 8237,
      "Ġflesh": 8238,
      "Ġfleshed": 8239,
      "Ġflavour": 8240,
      "Ġflicks": 8241,
      "arrass": 8242,
      "Ġpopulations": 8243,
      "Ġdestination": 8244,
      "Ġdestinations": 8245,
      "Ġmonument": 8246,
      "Ġmonaural": 8247,
      "Ġmonorail": 8248,
      "assification": 8249,
      "Ġremain": 8250,
      "Ġrememb": 8251,
      "Ġremotely": 8252,
      "Ġremarked": 8253,
      "Ġreminds": 8254,
      "Ġreports": 8255,
      "Ġreporter": 8256,
      "Ġreprised": 8257,
      "Ġrepaired": 8258,
      "Ġreporters": 8259,
      "Ġreputation": 8260,
      "Ġassembl": 8261,
      "Ġassemb": 8262,
      "Ġassumes": 8263,
      "Ġassigned": 8264,
      "Ġassociations": 8265,
      "Ġassociates": 8266,
      "ĠShane": 8267,
      "ĠShade": 8268,
      "ĠSharp": 8269,
      "ĠShawn": 8270,
      "ĠShortly": 8271,
      "ĠShakespeare": 8272,
      "ruptible": 8273,
      "Ġseverely": 8274,
      "Ġtechnological": 8275,
      "Ġtechnique": 8276,
      "Ġtechnologies": 8277,
      "Ġtechniques": 8278,
      "Ġtechnicians": 8279,
      "Ġwhereas": 8280,
      "Ġwhereby": 8281,
      "nesses": 8282,
      "pectations": 8283,
      "Ġmenacing": 8284,
      "Ġmenstru": 8285,
      "Ġmurders": 8286,
      "Ġmagnitude": 8287,
      "ĠReith": 8288,
      "ĠReign": 8289,
      "ĠReapp": 8290,
      "ĠRefus": 8291,
      "ĠReilly": 8292,
      "ĠReflections": 8293,
      "ĠReznor": 8294,
      "Ġconfusion": 8295,
      "Ġconfessed": 8296,
      "ificial": 8297,
      "ificantly": 8298,
      "Ġextrad": 8299,
      "Ġextensive": 8300,
      "Ġextending": 8301,
      "Ġ1960": 8302,
      "Ġ1965": 8303,
      "Ġ1966": 8304,
      "Ġ1968": 8305,
      "Ġ1969": 8306,
      "Ġyoungest": 8307,
      "Ġartist": 8308,
      "Ġartwork": 8309,
      "Ġarticle": 8310,
      "Ġarticul": 8311,
      "Ġartificial": 8312,
      "ficulty": 8313,
      "tingham": 8314,
      "Ġ81": 8315,
      "Ġ83": 8316,
      "Ġ85": 8317,
      "Ġ86": 8318,
      "Ġ88": 8319,
      "Ġ800": 8320,
      "Ġtwist": 8321,
      "Ġtwice": 8322,
      "heroic": 8323,
      "Ġspeeches": 8324,
      "Ġfalls": 8325,
      "Ġcentred": 8326,
      "Ġcentennial": 8327,
      "Ġcalls": 8328,
      "Ġcalling": 8329,
      "Ġcausation": 8330,
      "Ġdaytime": 8331,
      "Ġdaylight": 8332,
      "Ġdrugged": 8333,
      "Ġregional": 8334,
      "ĠSummer": 8335,
      "Ġlongtime": 8336,
      "Ġhelping": 8337,
      "ĠMalm": 8338,
      "owship": 8339,
      "ĠJones": 8340,
      "ĠJohnny": 8341,
      "ossus": 8342,
      "Ġprevalent": 8343,
      "Ġprevalence": 8344,
      "Ġmurdering": 8345,
      "extra": 8346,
      "extre": 8347,
      "existentialism": 8348,
      "extract": 8349,
      "gnosis": 8350,
      "hips": 8351,
      "mmas": 8352,
      "Ġ60": 8353,
      "Ġ63": 8354,
      "Ġ600": 8355,
      "Ġ670": 8356,
      "Ġedge": 8357,
      "Ġedition": 8358,
      "Ġeditor": 8359,
      "Ġeditions": 8360,
      "Ġtermin": 8361,
      "Ġterms": 8362,
      "Ġtermed": 8363,
      "Ġterrifying": 8364,
      "Ġtested": 8365,
      "Ġtestified": 8366,
      "Ġtestify": 8367,
      "Ġtestifies": 8368,
      "inkerken": 8369,
      "atician": 8370,
      "Ġsurreal": 8371,
      "Ġsurpass": 8372,
      "Ġsurveillance": 8373,
      "Ġsurgery": 8374,
      "Ġowned": 8375,
      "Ġpaint": 8376,
      "Ġpainter": 8377,
      "Ġpaintings": 8378,
      "Ġdiameter": 8379,
      "Ġmazes": 8380,
      "ĠSchles": 8381,
      "ĠSchiff": 8382,
      "ĠSchultz": 8383,
      "Ġbehalf": 8384,
      "ĠDavis": 8385,
      "Ġlightly": 8386,
      "Ġlighthous": 8387,
      "ĠGuern": 8388,
      "ĠGuillerm": 8389,
      "ĠGuardian": 8390,
      "ĠGuirey": 8391,
      "ĠGugliem": 8392,
      "ĠHolden": 8393,
      "Ġsuperb": 8394,
      "Ġprofitable": 8395,
      "Ġscreened": 8396,
      "Ġscreenwrit": 8397,
      "Ġgenerator": 8398,
      "eeping": 8399,
      "iament": 8400,
      "type": 8401,
      "ĠZeal": 8402,
      "ĠZsas": 8403,
      "Ġ[[": 8404,
      "Ġescap": 8405,
      "Ġespion": 8406,
      "Ġesoteric": 8407,
      "Ġenter": 8408,
      "Ġentered": 8409,
      "Ġentitled": 8410,
      "Ġentailed": 8411,
      "Ġenthus": 8412,
      "Ġentertained": 8413,
      "Ġtrump": 8414,
      "Ġsmoker": 8415,
      "Ġsixth": 8416,
      "Ġsixteen": 8417,
      "Ġcritical": 8418,
      "Ġpurposes": 8419,
      "Ġpromising": 8420,
      "Ġhype": 8421,
      "Ġhyster": 8422,
      "Ġhydro": 8423,
      "Ġdub": 8424,
      "Ġdubs": 8425,
      "Ġdueling": 8426,
      "Ġminutia": 8427,
      "Ġmainly": 8428,
      "Ġmainframe": 8429,
      "Ġmaintained": 8430,
      "Ġreflect": 8431,
      "Ġrefocus": 8432,
      "Ġrefreshing": 8433,
      "ĠAdler": 8434,
      "ĠAdvis": 8435,
      "ĠAdinkerke": 8436,
      "ĠAdditionally": 8437,
      "ĠAdvanced": 8438,
      "ĠAddressing": 8439,
      "ĠAdrien": 8440,
      "ĠAsian": 8441,
      "ĠAssist": 8442,
      "ĠAtom": 8443,
      "ĠCommission": 8444,
      "ĠCommitte": 8445,
      "Ġnomination": 8446,
      "Ġnominalizing": 8447,
      "iveness": 8448,
      "ĠWho": 8449,
      "ĠWhite": 8450,
      "ĠWhidden": 8451,
      "empting": 8452,
      "ĠFranco": 8453,
      "ĠFranÃ§ois": 8454,
      "ĠFrancisc": 8455,
      "Ġsupport": 8456,
      "Ġsupposed": 8457,
      "Ġoriginated": 8458,
      "Ġuncertain": 8459,
      "Ġuncorrupt": 8460,
      "Ġuncompressed": 8461,
      "Ġunconditional": 8462,
      "Ġunconscious": 8463,
      "Ġnews": 8464,
      "Ġcomplete": 8465,
      "Ġcompleting": 8466,
      "Ġcompletion": 8467,
      "Ġpolitics": 8468,
      "Ġdirectorial": 8469,
      "Ġscientist": 8470,
      "Ġpsychoph": 8471,
      "Ġpsychologist": 8472,
      "Ġpsychoactive": 8473,
      "ĠFischers": 8474,
      "eves": 8475,
      "eving": 8476,
      "minster": 8477,
      "Ġamphet": 8478,
      "Ġsomnus": 8479,
      "Ġsomberness": 8480,
      "ansson": 8481,
      "Ġfounded": 8482,
      "Ġinspiring": 8483,
      "Ġbackdrop": 8484,
      "Ġbooks": 8485,
      "Ġparentage": 8486,
      "levision": 8487,
      "Ġdetailed": 8488,
      "Ġdetracts": 8489,
      "Ġmuscle": 8490,
      "Ġmortal": 8491,
      "Ġreferencing": 8492,
      "Ġlistings": 8493,
      "Ġlistener": 8494,
      "Ġlikewise": 8495,
      "ĠProbe": 8496,
      "ĠPrognosis": 8497,
      "ussing": 8498,
      "ĠHarry": 8499,
      "Ġcombine": 8500,
      "Ġcombined": 8501,
      "Ġcombining": 8502,
      "Ġ2021": 8503,
      "Ġexplains": 8504,
      "Ġexplored": 8505,
      "Ġexploit": 8506,
      "Ġexploring": 8507,
      "Ġexplosives": 8508,
      "Ġexplodes": 8509,
      "Ġkeeping": 8510,
      "Ġkeepers": 8511,
      "Ġplots": 8512,
      "Ġcontrolled": 8513,
      "Ġinterested": 8514,
      "Ġdifference": 8515,
      "Ġperforms": 8516,
      "Ġperforming": 8517,
      "Ġperformers": 8518,
      "Ġbrothers": 8519,
      "Ġcriminals": 8520,
      "102": 8521,
      "109": 8522,
      "pletely": 8523,
      "Ã©mie": 8524,
      "Ġcolleague": 8525,
      "Ġbrutally": 8526,
      "Ġbelief": 8527,
      "Ġbelieve": 8528,
      "Ġbelieving": 8529,
      "Ġhonor": 8530,
      "Ġhonours": 8531,
      "Ġhonors": 8532,
      "Ġhonored": 8533,
      "Ġhonorary": 8534,
      "Ġhonoured": 8535,
      "Ġmillionth": 8536,
      "ĠAriana": 8537,
      "ĠDew": 8538,
      "Ġeffective": 8539,
      "Ġeffectiveness": 8540,
      "Ġnoir": 8541,
      "Ġnocturn": 8542,
      "ĠJoffrey": 8543,
      "ĠOrganizations": 8544,
      "Ġ1800": 8545,
      "Ġ1892": 8546,
      "Ġ1838": 8547,
      "Ġ1843": 8548,
      "Ġ1881": 8549,
      "Ġ1856": 8550,
      "2002": 8551,
      "2006": 8552,
      "Ġdefy": 8553,
      "Ġdefers": 8554,
      "Ġdeflect": 8555,
      "Ġdefended": 8556,
      "Ġdefensive": 8557,
      "Ġdefined": 8558,
      "Ġdefeated": 8559,
      "Ġdefinitive": 8560,
      "Ġproducing": 8561,
      "Ġproducers": 8562,
      "Ġlegitimate": 8563,
      "Ġvigorous": 8564,
      "Ġ1981": 8565,
      "Ġ1985": 8566,
      "Ġ1986": 8567,
      "Ġplacement": 8568,
      "Ġtrainer": 8569,
      "Ġpremise": 8570,
      "Ġcampus": 8571,
      "Ġmagician": 8572,
      "Ġtransit": 8573,
      "Ġtransition": 8574,
      "Ġtransnational": 8575,
      "Ġtransactions": 8576,
      "Ġtransitioned": 8577,
      "Ġtranslator": 8578,
      "Ġtransmitted": 8579,
      "Ġtransferring": 8580,
      "Ġtreatments": 8581,
      "aux": 8582,
      "airn": 8583,
      "airs": 8584,
      "considered": 8585,
      "consumption": 8586,
      "white": 8587,
      "Ġelse": 8588,
      "Ġelites": 8589,
      "Ġsoundscapes": 8590,
      "Ġfourteenth": 8591,
      "Ġwondering": 8592,
      "Ġcarry": 8593,
      "Ġcarries": 8594,
      "Ġcarrying": 8595,
      "Ġbuy": 8596,
      "Ġbuildings": 8597,
      "Ġbuses": 8598,
      "Ġbodysuit": 8599,
      "Ġposthumous": 8600,
      "Ġpostpone": 8601,
      "Ġprincess": 8602,
      "Ġhowever": 8603,
      "Ġdarkness": 8604,
      "Ġreading": 8605,
      "ĠSports": 8606,
      "ĠSprint": 8607,
      "Ġlooked": 8608,
      "Ġlooking": 8609,
      "Ġepics": 8610,
      "Ġnumerous": 8611,
      "tersweet": 8612,
      "chanism": 8613,
      "channel": 8614,
      "ĠMax": 8615,
      "ĠMafia": 8616,
      "ĠMazz": 8617,
      "ĠMaurk": 8618,
      "ĠMajest": 8619,
      "ĠWillie": 8620,
      "Ġconcerning": 8621,
      "Ġconcentrating": 8622,
      "Ġlectured": 8623,
      "Ġshowed": 8624,
      "Ġshowing": 8625,
      "Ġshowings": 8626,
      "Ġshowcase": 8627,
      "Ġshowrunn": 8628,
      "Ġapproach": 8629,
      "Ġapproached": 8630,
      "Ġapproaches": 8631,
      "Ġappropri": 8632,
      "Ġresearched": 8633,
      "Ġcontribute": 8634,
      "Ġcontribution": 8635,
      "Ġsecretary": 8636,
      "Ġemployed": 8637,
      "Ġemploying": 8638,
      "Ġblocking": 8639,
      "Ġpersonalities": 8640,
      "Ġpopularise": 8641,
      "Ġspecialty": 8642,
      "Ġspecializes": 8643,
      "Ġpromoting": 8644,
      "Ġpromotion": 8645,
      "Ġpromotional": 8646,
      "Ġsometimes": 8647,
      "Ġvigilantism": 8648,
      "Ġburgled": 8649,
      "Ġburglars": 8650,
      "bey": 8651,
      "being": 8652,
      "beck": 8653,
      "beaut": 8654,
      "behavioral": 8655,
      "bye": 8656,
      "jections": 8657,
      "loi": 8658,
      "loquial": 8659,
      "provide": 8660,
      "ricane": 8661,
      "works": 8662,
      "Ġ400": 8663,
      "Ġ50": 8664,
      "Ġ56": 8665,
      "Ġ592": 8666,
      "Ġ5946": 8667,
      "Ġillustr": 8668,
      "Ġillusions": 8669,
      "Ġillnesses": 8670,
      "Ġavant": 8671,
      "Ġavoided": 8672,
      "Ġthereby": 8673,
      "Ġfinally": 8674,
      "Ġfinale": 8675,
      "Ġfinish": 8676,
      "Ġfulfill": 8677,
      "Ġfriends": 8678,
      "Ġfocused": 8679,
      "Ġfocusing": 8680,
      "Ġoccasionally": 8681,
      "Ġoffering": 8682,
      "Ġmaster": 8683,
      "Ġmasked": 8684,
      "Ġmasquerading": 8685,
      "Ġmemorial": 8686,
      "ĠSciences": 8687,
      "ĠScientists": 8688,
      "stitution": 8689,
      "ĠDirection": 8690,
      "ĠDirectors": 8691,
      "Ġlastly": 8692,
      "eption": 8693,
      "ĠWestminster": 8694,
      "ĠOnce": 8695,
      "ĠOnkel": 8696,
      "Ġgroups": 8697,
      "ĠLuke": 8698,
      "Ġseemed": 8699,
      "Ġseemingly": 8700,
      "Ġlearned": 8701,
      "Ġ1940": 8702,
      "Ġ1942": 8703,
      "Ġ1943": 8704,
      "Ġ1946": 8705,
      "Ġ1947": 8706,
      "Ġ1949": 8707,
      "Ġplanes": 8708,
      "Ġresulted": 8709,
      "Ġfewer": 8710,
      "Ġweekdays": 8711,
      "Ġsystems": 8712,
      "Ġsystematic": 8713,
      "Ġrecommends": 8714,
      "Ġperformances": 8715,
      "Ġmajority": 8716,
      "Ġpursues": 8717,
      "Ġpursued": 8718,
      "Ġpursuing": 8719,
      "Ġduplicated": 8720,
      "denly": 8721,
      "hammy": 8722,
      "liners": 8723,
      "linear": 8724,
      "linder": 8725,
      "menopause": 8726,
      "menopaus": 8727,
      "notable": 8728,
      "shot": 8729,
      "Ġordinary": 8730,
      "Ġsonar": 8731,
      "Ġscholars": 8732,
      "Ġfacto": 8733,
      "Ġfactory": 8734,
      "Ġfactions": 8735,
      "Ġoperates": 8736,
      "Ġoperating": 8737,
      "Ġoperative": 8738,
      "Ġcurtain": 8739,
      "Ġcurrents": 8740,
      "Ġcreates": 8741,
      "Ġcreative": 8742,
      "Ġcreatures": 8743,
      "Ġchemotherapy": 8744,
      "ĠbiÃ¨": 8745,
      "Ġbiochem": 8746,
      "Ġburned": 8747,
      "Ġdaily": 8748,
      "Ġdazz": 8749,
      "Ġdiagnose": 8750,
      "Ġdiagnostic": 8751,
      "ilosophy": 8752,
      "Ġmyth": 8753,
      "Ġmyster": 8754,
      "Ġmindset": 8755,
      "ĠSoon": 8756,
      "ĠSeries": 8757,
      "ĠSpeech": 8758,
      "ĠSpeedway": 8759,
      "ĠClive": 8760,
      "ĠClouds": 8761,
      "ĠClassification": 8762,
      "ĠCompany": 8763,
      "Ġlauded": 8764,
      "Ġlatitud": 8765,
      "Ġlocal": 8766,
      "Ġlocated": 8767,
      "Ġefficacy": 8768,
      "Ġeffigy": 8769,
      "Ġnarrated": 8770,
      "Ġnarrator": 8771,
      "Ġnarrators": 8772,
      "ĠRoeth": 8773,
      "ĠRoache": 8774,
      "ĠRoosevelt": 8775,
      "ĠMarketing": 8776,
      "Ġstring": 8777,
      "Ġstriving": 8778,
      "Ġstressing": 8779,
      "Ġguilty": 8780,
      "Ġsuggesting": 8781,
      "Ġsuggestion": 8782,
      "Ġproliferation": 8783,
      "ĠEdwards": 8784,
      "ĠEuroport": 8785,
      "Ġvoiced": 8786,
      "Ġversa": 8787,
      "Ġversus": 8788,
      "Ġversions": 8789,
      "Ġversatility": 8790,
      "Ġ1971": 8791,
      "Ġ1972": 8792,
      "Ġ1973": 8793,
      "Ġ1977": 8794,
      "Ġ1979": 8795,
      "Ġorganization": 8796,
      "ĠUSA": 8797,
      "ĠUSL": 8798,
      "Ġnevertheless": 8799,
      "Ġcomputers": 8800,
      "Ġimagination": 8801,
      "Ġactivate": 8802,
      "Ġprepare": 8803,
      "Ġprepared": 8804,
      "Ġarchive": 8805,
      "Ġarchiving": 8806,
      "Ġarchivist": 8807,
      "Ġmeasuring": 8808,
      "1984": 8809,
      "Ġinvolve": 8810,
      "Ġinvolving": 8811,
      "Ġinvolvement": 8812,
      "Ġpremiering": 8813,
      "Ġmilitarists": 8814,
      "Ġoccurring": 8815,
      "clean": 8816,
      "iktek": 8817,
      "rillo": 8818,
      "tragic": 8819,
      "ysi": 8820,
      "Ġtasks": 8821,
      "Ġtried": 8822,
      "Ġtrial": 8823,
      "Ġtrials": 8824,
      "Ġtriangulation": 8825,
      "Ġaffecting": 8826,
      "Ġobserve": 8827,
      "Ġcirculating": 8828,
      "Ġcultured": 8829,
      "Ġcultural": 8830,
      "Ġcinemago": 8831,
      "Ġbedroom": 8832,
      "Ġboxes": 8833,
      "Ġparodies": 8834,
      "Ġparanoid": 8835,
      "Ġparoled": 8836,
      "Ġparodied": 8837,
      "Ġparameters": 8838,
      "Ġparodying": 8839,
      "Ġpriest": 8840,
      "Ġprize": 8841,
      "Ġpractice": 8842,
      "Ġhaul": 8843,
      "Ġhaunted": 8844,
      "Ġdrives": 8845,
      "Ġdidactic": 8846,
      "Ġmentions": 8847,
      "Ġmentioned": 8848,
      "Ġmarks": 8849,
      "Ġmarked": 8850,
      "Ġmarketed": 8851,
      "Ġrebound": 8852,
      "Ġthreatened": 8853,
      "Ġthinks": 8854,
      "Ġbegun": 8855,
      "ĠDileep": 8856,
      "Ġlabored": 8857,
      "Ġlabelled": 8858,
      "Ġlacking": 8859,
      "Ġliterary": 8860,
      "Ġequal": 8861,
      "ĠPhillips": 8862,
      "ĠPhilosophy": 8863,
      "Ġheartbre": 8864,
      "Ġstops": 8865,
      "ĠWeiner": 8866,
      "ĠFlass": 8867,
      "ĠFlorence": 8868,
      "ĠFlandres": 8869,
      "Ġconvoy": 8870,
      "Ġconvince": 8871,
      "Ġconvincing": 8872,
      "Ġconvolut": 8873,
      "Ġconstantly": 8874,
      "Ġconstipation": 8875,
      "vertently": 8876,
      "Ġ1045": 8877,
      "ĠLego": 8878,
      "ĠLegion": 8879,
      "ĠLegacy": 8880,
      "ĠLegeno": 8881,
      "Ġsuitable": 8882,
      "Ġprocessing": 8883,
      "ĠExchange": 8884,
      "ĠExclusive": 8885,
      "ĠExpress": 8886,
      "ĠExampl": 8887,
      "Ġchanged": 8888,
      "Ġchanging": 8889,
      "Ġviewed": 8890,
      "Ġviewers": 8891,
      "Ġviewpoint": 8892,
      "oversees": 8893,
      "Ġshifting": 8894,
      "Ġintroduce": 8895,
      "Ġresponse": 8896,
      "Ġemotionally": 8897,
      "Ġimproved": 8898,
      "Ġimproving": 8899,
      "Ġimprovement": 8900,
      "Ġimprovise": 8901,
      "Ġgoodbye": 8902,
      "Ġgovernmental": 8903,
      "Ġpresentation": 8904,
      "Ġrecords": 8905,
      "Ġrecordings": 8906,
      "Ġdecidedly": 8907,
      "Ġsubjects": 8908,
      "Ġsubjected": 8909,
      "Ġtrickery": 8910,
      "Ġphotography": 8911,
      "Ġphotograp": 8912,
      "Ġmodeling": 8913,
      "Ġassistance": 8914,
      "Ġregardless": 8915,
      "Ġsmaller": 8916,
      "Ġcomplexity": 8917,
      "Ġpatterns": 8918,
      "criptions": 8919,
      "Ġtypes": 8920,
      "1790": 8921,
      "1784": 8922,
      "Chronic": 8923,
      "Christopher": 8924,
      "Changes": 8925,
      "Heath": 8926,
      "Symptoms": 8927,
      "complete": 8928,
      "commercial": 8929,
      "command": 8930,
      "completely": 8931,
      "defunct": 8932,
      "scarred": 8933,
      "Ġ75": 8934,
      "Ġ710": 8935,
      "Ġending": 8936,
      "Ġenduring": 8937,
      "Ġtimesharing": 8938,
      "regardless": 8939,
      "Ġfrees": 8940,
      "Ġfreight": 8941,
      "Ġfreedom": 8942,
      "Ġfleet": 8943,
      "Ġfleeing": 8944,
      "Ġflexible": 8945,
      "Ġfights": 8946,
      "Ġfreeing": 8947,
      "Ġwords": 8948,
      "Ġcolour": 8949,
      "Ġcolloquial": 8950,
      "Ġcivic": 8951,
      "Ġcredit": 8952,
      "Ġcountries": 8953,
      "Ġinjuries": 8954,
      "Ġinjustice": 8955,
      "Ġpasses": 8956,
      "Ġpassenger": 8957,
      "Ġhousehold": 8958,
      "Ġderailed": 8959,
      "Ġdedication": 8960,
      "Ġdedicates": 8961,
      "Ġdeduces": 8962,
      "Ġdivert": 8963,
      "Ġdivide": 8964,
      "Ġdivisive": 8965,
      "Ġdocuments": 8966,
      "Ġmissing": 8967,
      "Ġmisdirect": 8968,
      "Ġmisdiagnosed": 8969,
      "Ġmissions": 8970,
      "Ġmotives": 8971,
      "Ġmotivated": 8972,
      "Ġmaternal": 8973,
      "Ġmixtap": 8974,
      "ĠBeach": 8975,
      "ĠBeatrice": 8976,
      "ĠBeaux": 8977,
      "ĠBrown": 8978,
      "ropolis": 8979,
      "rophysicists": 8980,
      "Ġreaction": 8981,
      "ĠApollo": 8982,
      "ĠColon": 8983,
      "ĠColumbia": 8984,
      "ĠColderdale": 8985,
      "ĠCritics": 8986,
      "ĠCastle": 8987,
      "ambre": 8988,
      "Ġelevator": 8989,
      "Ġelevators": 8990,
      "urbances": 8991,
      "uralist": 8992,
      "ĠTheseus": 8993,
      "Ġhenchman": 8994,
      "unnamed": 8995,
      "ĠReprise": 8996,
      "ĠRepublic": 8997,
      "ĠRegion": 8998,
      "ĠRegret": 8999,
      "ĠRegina": 9000,
      "ĠMcGeorge": 9001,
      "ĠMcGraw": 9002,
      "ĠMcMaster": 9003,
      "ĠMarvel": 9004,
      "ĠMaroni": 9005,
      "ĠMarseille": 9006,
      "ĠMayor": 9007,
      "ĠForces": 9008,
      "raint": 9009,
      "Ġdeeper": 9010,
      "Ġsuffers": 9011,
      "Ġchaired": 9012,
      "Ġchanting": 9013,
      "Ġincorporeal": 9014,
      "Ġincorruptible": 9015,
      "Ġshots": 9016,
      "Ġintellectually": 9017,
      "Ġimplications": 9018,
      "Ġfeuding": 9019,
      "Ġtelevisions": 9020,
      "ĠStudy": 9021,
      "ĠStudios": 9022,
      "Ġdesigner": 9023,
      "Ġdesigning": 9024,
      "Ġembody": 9025,
      "Ġembolism": 9026,
      "Ġembarrass": 9027,
      "Ġadapted": 9028,
      "Ġclaiming": 9029,
      "Ġpersuading": 9030,
      "Ġpersuasively": 9031,
      "Ġaccompany": 9032,
      "Ġaccompanies": 9033,
      "Ġcommunity": 9034,
      "Ġcommunities": 9035,
      "Ġcommunication": 9036,
      "Ġengaged": 9037,
      "Ġengaging": 9038,
      "Ġengineering": 9039,
      "Ġsafely": 9040,
      "Ġindustries": 9041,
      "Ġindependently": 9042,
      "Ġphilosophers": 9043,
      "Ġdiscussed": 9044,
      "Ġdiscussing": 9045,
      "Ġdiscussions": 9046,
      "Ġinfluencing": 9047,
      "Ġrepresenting": 9048,
      "Ġhistorian": 9049,
      "Ġhistorically": 9050,
      "Ġhistorians": 9051,
      "Ġconfronting": 9052,
      "Ġprotective": 9053,
      "Ġrefuse": 9054,
      "Ġcaffeinated": 9055,
      "ĠJoey": 9056,
      "Ġapproximation": 9057,
      "Ġestablishes": 9058,
      "Ġfullness": 9059,
      "Ġexperiencing": 9060,
      "nowledged": 9061,
      "Ġcurrently": 9062,
      "ĠSpecialists": 9063,
      "Ġlaunched": 9064,
      "Ġhallucinations": 9065,
      "Ġreboots": 9066,
      "Ġrebooted": 9067,
      "Ġintroduces": 9068,
      "Ġintroducing": 9069,
      "Ġresponses": 9070,
      "Ġmultiplex": 9071,
      "Ġindividuals": 9072,
      "Alon": 9073,
      "Although": 9074,
      "Quite": 9075,
      "ahl": 9076,
      "conian": 9077,
      "contin": 9078,
      "gesic": 9079,
      "psons": 9080,
      "print": 9081,
      "single": 9082,
      "singular": 9083,
      "visations": 9084,
      "Ã¨ne": 9085,
      "Ã¨de": 9086,
      "Ġera": 9087,
      "Ġerased": 9088,
      "Ġerase": 9089,
      "Ġeradicated": 9090,
      "Ġrumored": 9091,
      "Ġrumination": 9092,
      "Ġrift": 9093,
      "Ġrifling": 9094,
      "Ġessay": 9095,
      "Ġessential": 9096,
      "Ġtalk": 9097,
      "Ġtalent": 9098,
      "Ġacross": 9099,
      "Ġachieve": 9100,
      "Ġachieved": 9101,
      "ervised": 9102,
      "relievers": 9103,
      "Ġsword": 9104,
      "Ġswear": 9105,
      "Ġswarmed": 9106,
      "Ġsweeping": 9107,
      "Ġsedated": 9108,
      "Ġsedates": 9109,
      "Ġsleeves": 9110,
      "Ġsuspect": 9111,
      "Ġsuspects": 9112,
      "Ġsidekick": 9113,
      "Ġsongs": 9114,
      "Ġfarce": 9115,
      "Ġwinters": 9116,
      "Ġanti": 9117,
      "Ġantagon": 9118,
      "Ġanalyz": 9119,
      "Ġanalgesic": 9120,
      "Ġoppose": 9121,
      "Ġopposed": 9122,
      "Ġoppressing": 9123,
      "Ġopponents": 9124,
[...]
